{
  "version": "1.0",
  "truncation": {
    "direction": "Right",
    "max_length": 512,
    "strategy": "LongestFirst",
    "stride": 0
  },
  "padding": {
    "strategy": "BatchLongest",
    "direction": "Right",
    "pad_to_multiple_of": null,
    "pad_id": 0,
    "pad_type_id": 0,
    "pad_token": "[PAD]"
  },
  "added_tokens": [
    {
      "id": 0,
      "content": "[PAD]",
      "single_word": false,
      "lstrip": false,
      "rstrip": false,
      "normalized": false,
      "special": true
    },
    {
      "id": 1,
      "content": "[UNK]",
      "single_word": false,
      "lstrip": false,
      "rstrip": false,
      "normalized": false,
      "special": true
    },
    {
      "id": 2,
      "content": "[CLS]",
      "single_word": false,
      "lstrip": false,
      "rstrip": false,
      "normalized": false,
      "special": true
    },
    {
      "id": 3,
      "content": "[SEP]",
      "single_word": false,
      "lstrip": false,
      "rstrip": false,
      "normalized": false,
      "special": true
    },
    {
      "id": 4,
      "content": "[MASK]",
      "single_word": false,
      "lstrip": false,
      "rstrip": false,
      "normalized": false,
      "special": true
    }
  ],
  "normalizer": {
    "type": "BertNormalizer",
    "clean_text": true,
    "handle_chinese_chars": true,
    "strip_accents": null,
    "lowercase": true
  },
  "pre_tokenizer": {
    "type": "BertPreTokenizer"
  },
  "post_processor": {
    "type": "TemplateProcessing",
    "single": [
      {
        "SpecialToken": {
          "id": "[CLS]",
          "type_id": 0
        }
      },
      {
        "Sequence": {
          "id": "A",
          "type_id": 0
        }
      },
      {
        "SpecialToken": {
          "id": "[SEP]",
          "type_id": 0
        }
      }
    ],
    "pair": [
      {
        "SpecialToken": {
          "id": "[CLS]",
          "type_id": 0
        }
      },
      {
        "Sequence": {
          "id": "A",
          "type_id": 0
        }
      },
      {
        "SpecialToken": {
          "id": "[SEP]",
          "type_id": 0
        }
      },
      {
        "Sequence": {
          "id": "B",
          "type_id": 1
        }
      },
      {
        "SpecialToken": {
          "id": "[SEP]",
          "type_id": 1
        }
      }
    ],
    "special_tokens": {
      "[CLS]": {
        "id": "[CLS]",
        "ids": [
          2
        ],
        "tokens": [
          "[CLS]"
        ]
      },
      "[SEP]": {
        "id": "[SEP]",
        "ids": [
          3
        ],
        "tokens": [
          "[SEP]"
        ]
      }
    }
  },
  "decoder": {
    "type": "WordPiece",
    "prefix": "##",
    "cleanup": true
  },
  "model": {
    "type": "WordPiece",
    "unk_token": "[UNK]",
    "continuing_subword_prefix": "##",
    "max_input_chars_per_word": 100,
    "vocab": {
      "[PAD]": 0,
      "[UNK]": 1,
      "[CLS]": 2,
      "[SEP]": 3,
      "[MASK]": 4,
      "!": 5,
      "$": 6,
      "%": 7,
      "&": 8,
      "'": 9,
      "(": 10,
      ")": 11,
      "*": 12,
      "+": 13,
      ",": 14,
      "-": 15,
      ".": 16,
      "/": 17,
      "0": 18,
      "1": 19,
      "2": 20,
      "3": 21,
      "4": 22,
      "5": 23,
      "6": 24,
      "7": 25,
      "8": 26,
      "9": 27,
      ":": 28,
      ";": 29,
      "<": 30,
      "=": 31,
      ">": 32,
      "?": 33,
      "@": 34,
      "[": 35,
      "\\": 36,
      "]": 37,
      "^": 38,
      "`": 39,
      "a": 40,
      "b": 41,
      "c": 42,
      "d": 43,
      "e": 44,
      "f": 45,
      "g": 46,
      "h": 47,
      "i": 48,
      "j": 49,
      "k": 50,
      "l": 51,
      "m": 52,
      "n": 53,
      "o": 54,
      "p": 55,
      "q": 56,
      "r": 57,
      "s": 58,
      "t": 59,
      "u": 60,
      "v": 61,
      "w": 62,
      "x": 63,
      "y": 64,
      "z": 65,
      "{": 66,
      "|": 67,
      "}": 68,
      "~": 69,
      "¡": 70,
      "£": 71,
      "¤": 72,
      "¨": 73,
      "©": 74,
      "«": 75,
      "¬": 76,
      "®": 77,
      "¯": 78,
      "°": 79,
      "²": 80,
      "´": 81,
      "·": 82,
      "¸": 83,
      "»": 84,
      "¿": 85,
      "×": 86,
      "ø": 87,
      "ı": 88,
      "ɪ": 89,
      "ˆ": 90,
      "ˇ": 91,
      "ː": 92,
      "˓": 93,
      "˘": 94,
      "˚": 95,
      "˛": 96,
      "˺": 97,
      "α": 98,
      "ι": 99,
      "ρ": 100,
      "м": 101,
      "ֆ": 102,
      "ב": 103,
      "ו": 104,
      "ט": 105,
      "י": 106,
      "ל": 107,
      "ם": 108,
      "ע": 109,
      "פ": 110,
      "ױ": 111,
      "،": 112,
      "؏": 113,
      "؛": 114,
      "؟": 115,
      "ء": 116,
      "ا": 117,
      "ب": 118,
      "ة": 119,
      "ت": 120,
      "ث": 121,
      "ج": 122,
      "ح": 123,
      "خ": 124,
      "د": 125,
      "ذ": 126,
      "ر": 127,
      "ز": 128,
      "س": 129,
      "ش": 130,
      "ص": 131,
      "ض": 132,
      "ط": 133,
      "ظ": 134,
      "ع": 135,
      "غ": 136,
      "ف": 137,
      "ق": 138,
      "ك": 139,
      "ل": 140,
      "م": 141,
      "ن": 142,
      "ه": 143,
      "و": 144,
      "ى": 145,
      "ي": 146,
      "٠": 147,
      "١": 148,
      "٢": 149,
      "٣": 150,
      "٤": 151,
      "٥": 152,
      "٦": 153,
      "٧": 154,
      "٨": 155,
      "٩": 156,
      "٪": 157,
      "٫": 158,
      "٬": 159,
      "٭": 160,
      "ٱ": 161,
      "ٲ": 162,
      "ٳ": 163,
      "ٹ": 164,
      "ٺ": 165,
      "ٻ": 166,
      "پ": 167,
      "چ": 168,
      "ڈ": 169,
      "ډ": 170,
      "ڑ": 171,
      "ړ": 172,
      "ڕ": 173,
      "ژ": 174,
      "ڛ": 175,
      "ڤ": 176,
      "ڨ": 177,
      "ک": 178,
      "ڪ": 179,
      "ګ": 180,
      "گ": 181,
      "ڱ": 182,
      "ڳ": 183,
      "ڵ": 184,
      "ڷ": 185,
      "ں": 186,
      "ڼ": 187,
      "ھ": 188,
      "ہ": 189,
      "ۃ": 190,
      "ۄ": 191,
      "ۅ": 192,
      "ۆ": 193,
      "ۈ": 194,
      "ۉ": 195,
      "ۊ": 196,
      "ی": 197,
      "ۍ": 198,
      "ێ": 199,
      "ې": 200,
      "ے": 201,
      "۔": 202,
      "ە": 203,
      "۞": 204,
      "۩": 205,
      "۰": 206,
      "۱": 207,
      "۲": 208,
      "۶": 209,
      "ۿ": 210,
      "ஜ": 211,
      "༄": 212,
      "༅": 213,
      "༺": 214,
      "༻": 215,
      "࿐": 216,
      "ღ": 217,
      "ᄋ": 218,
      "ᅡ": 219,
      "ᅵ": 220,
      "ᆫ": 221,
      "ᴗ": 222,
      "–": 223,
      "—": 224,
      "‘": 225,
      "’": 226,
      "“": 227,
      "”": 228,
      "„": 229,
      "•": 230,
      "…": 231,
      "‹": 232,
      "›": 233,
      "‼": 234,
      "‿": 235,
      "⁉": 236,
      "⁰": 237,
      "⁽": 238,
      "₎": 239,
      "€": 240,
      "⃣": 241,
      "ℓ": 242,
      "™": 243,
      "←": 244,
      "→": 245,
      "↓": 246,
      "↩": 247,
      "↪": 248,
      "↴": 249,
      "⇠": 250,
      "⇢": 251,
      "⇣": 252,
      "⇦": 253,
      "√": 254,
      "≀": 255,
      "≈": 256,
      "⌒": 257,
      "⌚": 258,
      "⌣": 259,
      "⏰": 260,
      "⏱": 261,
      "⏳": 262,
      "①": 263,
      "②": 264,
      "③": 265,
      "④": 266,
      "⑤": 267,
      "⑥": 268,
      "ⓜ": 269,
      "─": 270,
      "━": 271,
      "┃": 272,
      "┄": 273,
      "┅": 274,
      "┈": 275,
      "┉": 276,
      "┊": 277,
      "┋": 278,
      "┏": 279,
      "┓": 280,
      "┛": 281,
      "═": 282,
      "║": 283,
      "╬": 284,
      "╭": 285,
      "╮": 286,
      "╯": 287,
      "╰": 288,
      "╱": 289,
      "╲": 290,
      "▂": 291,
      "▄": 292,
      "█": 293,
      "▉": 294,
      "░": 295,
      "▒": 296,
      "▓": 297,
      "■": 298,
      "▪": 299,
      "▫": 300,
      "▬": 301,
      "▶": 302,
      "►": 303,
      "◀": 304,
      "◄": 305,
      "◆": 306,
      "◉": 307,
      "○": 308,
      "◎": 309,
      "●": 310,
      "◕": 311,
      "◤": 312,
      "◥": 313,
      "◦": 314,
      "◾": 315,
      "☀": 316,
      "☁": 317,
      "☂": 318,
      "☄": 319,
      "★": 320,
      "☆": 321,
      "☇": 322,
      "☎": 323,
      "☑": 324,
      "☔": 325,
      "☕": 326,
      "☘": 327,
      "☜": 328,
      "☝": 329,
      "☞": 330,
      "☟": 331,
      "☹": 332,
      "☺": 333,
      "☻": 334,
      "♀": 335,
      "♂": 336,
      "♈": 337,
      "♔": 338,
      "♕": 339,
      "♚": 340,
      "♛": 341,
      "♠": 342,
      "♡": 343,
      "♢": 344,
      "♣": 345,
      "♤": 346,
      "♥": 347,
      "♦": 348,
      "♧": 349,
      "♨": 350,
      "♩": 351,
      "♪": 352,
      "♫": 353,
      "♬": 354,
      "♯": 355,
      "♻": 356,
      "⚘": 357,
      "⚜": 358,
      "⚠": 359,
      "⚡": 360,
      "⚪": 361,
      "⚫": 362,
      "⚽": 363,
      "⛄": 364,
      "⛅": 365,
      "⛈": 366,
      "⛔": 367,
      "✅": 368,
      "✈": 369,
      "✉": 370,
      "✊": 371,
      "✋": 372,
      "✌": 373,
      "✍": 374,
      "✎": 375,
      "✏": 376,
      "✒": 377,
      "✔": 378,
      "✖": 379,
      "✗": 380,
      "✥": 381,
      "✦": 382,
      "✧": 383,
      "✨": 384,
      "✩": 385,
      "✯": 386,
      "✰": 387,
      "✳": 388,
      "✴": 389,
      "✵": 390,
      "✷": 391,
      "✹": 392,
      "✺": 393,
      "✽": 394,
      "✾": 395,
      "✿": 396,
      "❀": 397,
      "❁": 398,
      "❃": 399,
      "❄": 400,
      "❇": 401,
      "❈": 402,
      "❉": 403,
      "❊": 404,
      "❋": 405,
      "❌": 406,
      "❎": 407,
      "❓": 408,
      "❕": 409,
      "❖": 410,
      "❗": 411,
      "❣": 412,
      "❤": 413,
      "❥": 414,
      "❶": 415,
      "❷": 416,
      "❸": 417,
      "❹": 418,
      "➊": 419,
      "➋": 420,
      "➌": 421,
      "➍": 422,
      "➎": 423,
      "➏": 424,
      "➐": 425,
      "➖": 426,
      "➰": 427,
      "⠀": 428,
      "⤵": 429,
      "⬅": 430,
      "⬇": 431,
      "⬛": 432,
      "⭐": 433,
      "⭕": 434,
      "⸀": 435,
      "⿻": 436,
      "、": 437,
      "。": 438,
      "《": 439,
      "》": 440,
      "【": 441,
      "】": 442,
      "〰": 443,
      "〽": 444,
      "ツ": 445,
      "・": 446,
      "ヽ": 447,
      "ㅤ": 448,
      "㊗": 449,
      "㊙": 450,
      "ﭑ": 451,
      "ﭔ": 452,
      "ﭘ": 453,
      "ﭠ": 454,
      "ﮏ": 455,
      "ﮐ": 456,
      "ﮑ": 457,
      "ﮓ": 458,
      "ﮔ": 459,
      "ﮕ": 460,
      "ﮘ": 461,
      "ﮞ": 462,
      "ﮟ": 463,
      "ﮧ": 464,
      "ﮨ": 465,
      "ﮩ": 466,
      "ﮪ": 467,
      "ﮫ": 468,
      "ﮬ": 469,
      "ﮭ": 470,
      "ﮯ": 471,
      "ﮱ": 472,
      "﮼": 473,
      "ﯙ": 474,
      "ﯽ": 475,
      "ﯾ": 476,
      "ﯿ": 477,
      "﴾": 478,
      "﴿": 479,
      "ﷲ": 480,
      "ﷺ": 481,
      "ﷻ": 482,
      "﷼": 483,
      "﷽": 484,
      "ﺀ": 485,
      "ﺁ": 486,
      "ﺂ": 487,
      "ﺃ": 488,
      "ﺄ": 489,
      "ﺅ": 490,
      "ﺆ": 491,
      "ﺇ": 492,
      "ﺈ": 493,
      "ﺊ": 494,
      "ﺋ": 495,
      "ﺌ": 496,
      "ﺍ": 497,
      "ﺎ": 498,
      "ﺏ": 499,
      "ﺐ": 500,
      "ﺑ": 501,
      "ﺒ": 502,
      "ﺓ": 503,
      "ﺔ": 504,
      "ﺕ": 505,
      "ﺖ": 506,
      "ﺗ": 507,
      "ﺘ": 508,
      "ﺙ": 509,
      "ﺚ": 510,
      "ﺛ": 511,
      "ﺜ": 512,
      "ﺝ": 513,
      "ﺞ": 514,
      "ﺟ": 515,
      "ﺠ": 516,
      "ﺡ": 517,
      "ﺢ": 518,
      "ﺣ": 519,
      "ﺤ": 520,
      "ﺦ": 521,
      "ﺧ": 522,
      "ﺨ": 523,
      "ﺩ": 524,
      "ﺪ": 525,
      "ﺫ": 526,
      "ﺬ": 527,
      "ﺭ": 528,
      "ﺮ": 529,
      "ﺯ": 530,
      "ﺰ": 531,
      "ﺱ": 532,
      "ﺲ": 533,
      "ﺳ": 534,
      "ﺴ": 535,
      "ﺵ": 536,
      "ﺶ": 537,
      "ﺷ": 538,
      "ﺸ": 539,
      "ﺹ": 540,
      "ﺺ": 541,
      "ﺻ": 542,
      "ﺼ": 543,
      "ﺽ": 544,
      "ﺾ": 545,
      "ﺿ": 546,
      "ﻀ": 547,
      "ﻁ": 548,
      "ﻂ": 549,
      "ﻃ": 550,
      "ﻄ": 551,
      "ﻆ": 552,
      "ﻇ": 553,
      "ﻈ": 554,
      "ﻉ": 555,
      "ﻊ": 556,
      "ﻋ": 557,
      "ﻌ": 558,
      "ﻏ": 559,
      "ﻐ": 560,
      "ﻑ": 561,
      "ﻒ": 562,
      "ﻓ": 563,
      "ﻔ": 564,
      "ﻕ": 565,
      "ﻖ": 566,
      "ﻗ": 567,
      "ﻘ": 568,
      "ﻙ": 569,
      "ﻚ": 570,
      "ﻛ": 571,
      "ﻜ": 572,
      "ﻝ": 573,
      "ﻞ": 574,
      "ﻟ": 575,
      "ﻠ": 576,
      "ﻡ": 577,
      "ﻢ": 578,
      "ﻣ": 579,
      "ﻤ": 580,
      "ﻥ": 581,
      "ﻦ": 582,
      "ﻧ": 583,
      "ﻨ": 584,
      "ﻩ": 585,
      "ﻪ": 586,
      "ﻫ": 587,
      "ﻬ": 588,
      "ﻭ": 589,
      "ﻮ": 590,
      "ﻯ": 591,
      "ﻰ": 592,
      "ﻱ": 593,
      "ﻲ": 594,
      "ﻳ": 595,
      "ﻴ": 596,
      "ﻵ": 597,
      "ﻶ": 598,
      "ﻷ": 599,
      "ﻸ": 600,
      "ﻹ": 601,
      "ﻻ": 602,
      "ﻼ": 603,
      "｀": 604,
      "｡": 605,
      "･": 606,
      "ﾟ": 607,
      "￼": 608,
      "🅱": 609,
      "🅾": 610,
      "🆗": 611,
      "🆚": 612,
      "🇦": 613,
      "🇧": 614,
      "🇨": 615,
      "🇩": 616,
      "🇪": 617,
      "🇫": 618,
      "🇬": 619,
      "🇭": 620,
      "🇮": 621,
      "🇯": 622,
      "🇰": 623,
      "🇱": 624,
      "🇲": 625,
      "🇳": 626,
      "🇴": 627,
      "🇵": 628,
      "🇶": 629,
      "🇷": 630,
      "🇸": 631,
      "🇹": 632,
      "🇺": 633,
      "🇼": 634,
      "🇾": 635,
      "🇿": 636,
      "🌀": 637,
      "🌇": 638,
      "🌈": 639,
      "🌊": 640,
      "🌌": 641,
      "🌍": 642,
      "🌎": 643,
      "🌐": 644,
      "🌑": 645,
      "🌕": 646,
      "🌙": 647,
      "🌚": 648,
      "🌝": 649,
      "🌞": 650,
      "🌟": 651,
      "🌠": 652,
      "🌤": 653,
      "🌧": 654,
      "🌨": 655,
      "🌰": 656,
      "🌱": 657,
      "🌲": 658,
      "🌳": 659,
      "🌴": 660,
      "🌵": 661,
      "🌷": 662,
      "🌸": 663,
      "🌹": 664,
      "🌺": 665,
      "🌻": 666,
      "🌼": 667,
      "🌾": 668,
      "🌿": 669,
      "🍀": 670,
      "🍁": 671,
      "🍂": 672,
      "🍃": 673,
      "🍇": 674,
      "🍉": 675,
      "🍒": 676,
      "🍓": 677,
      "🍔": 678,
      "🍥": 679,
      "🍫": 680,
      "🍯": 681,
      "🍰": 682,
      "🍷": 683,
      "🍺": 684,
      "🍻": 685,
      "🎀": 686,
      "🎁": 687,
      "🎂": 688,
      "🎆": 689,
      "🎇": 690,
      "🎈": 691,
      "🎉": 692,
      "🎊": 693,
      "🎋": 694,
      "🎐": 695,
      "🎓": 696,
      "🎖": 697,
      "🎗": 698,
      "🎙": 699,
      "🎤": 700,
      "🎥": 701,
      "🎧": 702,
      "🎨": 703,
      "🎩": 704,
      "🎬": 705,
      "🎯": 706,
      "🎵": 707,
      "🎶": 708,
      "🎷": 709,
      "🎸": 710,
      "🎻": 711,
      "🎼": 712,
      "🏁": 713,
      "🏃": 714,
      "🏆": 715,
      "🏠": 716,
      "🏡": 717,
      "🏹": 718,
      "🏻": 719,
      "🏼": 720,
      "🏽": 721,
      "🏾": 722,
      "🏿": 723,
      "🐎": 724,
      "🐑": 725,
      "🐒": 726,
      "🐜": 727,
      "🐝": 728,
      "🐣": 729,
      "🐥": 730,
      "🐪": 731,
      "🐸": 732,
      "🐼": 733,
      "👀": 734,
      "👂": 735,
      "👄": 736,
      "👅": 737,
      "👆": 738,
      "👇": 739,
      "👈": 740,
      "👉": 741,
      "👊": 742,
      "👋": 743,
      "👌": 744,
      "👍": 745,
      "👎": 746,
      "👏": 747,
      "👐": 748,
      "👑": 749,
      "👒": 750,
      "👞": 751,
      "👣": 752,
      "👤": 753,
      "👥": 754,
      "👦": 755,
      "👧": 756,
      "👨": 757,
      "👩": 758,
      "👫": 759,
      "👬": 760,
      "👭": 761,
      "👮": 762,
      "👯": 763,
      "👰": 764,
      "👱": 765,
      "👳": 766,
      "👴": 767,
      "👵": 768,
      "👶": 769,
      "👸": 770,
      "👹": 771,
      "👻": 772,
      "👼": 773,
      "👽": 774,
      "👿": 775,
      "💀": 776,
      "💁": 777,
      "💃": 778,
      "💅": 779,
      "💆": 780,
      "💉": 781,
      "💋": 782,
      "💌": 783,
      "💍": 784,
      "💎": 785,
      "💏": 786,
      "💐": 787,
      "💑": 788,
      "💓": 789,
      "💔": 790,
      "💕": 791,
      "💖": 792,
      "💗": 793,
      "💘": 794,
      "💙": 795,
      "💚": 796,
      "💛": 797,
      "💜": 798,
      "💝": 799,
      "💞": 800,
      "💟": 801,
      "💠": 802,
      "💡": 803,
      "💢": 804,
      "💣": 805,
      "💤": 806,
      "💥": 807,
      "💦": 808,
      "💧": 809,
      "💨": 810,
      "💩": 811,
      "💪": 812,
      "💫": 813,
      "💬": 814,
      "💭": 815,
      "💮": 816,
      "💯": 817,
      "💰": 818,
      "💵": 819,
      "💸": 820,
      "💻": 821,
      "📌": 822,
      "📍": 823,
      "📕": 824,
      "📖": 825,
      "📚": 826,
      "📝": 827,
      "📞": 828,
      "📢": 829,
      "📣": 830,
      "📩": 831,
      "📮": 832,
      "📯": 833,
      "📱": 834,
      "📲": 835,
      "📷": 836,
      "📸": 837,
      "📹": 838,
      "📺": 839,
      "📻": 840,
      "📿": 841,
      "🔁": 842,
      "🔃": 843,
      "🔄": 844,
      "🔅": 845,
      "🔆": 846,
      "🔊": 847,
      "🔐": 848,
      "🔑": 849,
      "🔔": 850,
      "🔕": 851,
      "🔖": 852,
      "🔗": 853,
      "🔘": 854,
      "🔙": 855,
      "🔛": 856,
      "🔝": 857,
      "🔞": 858,
      "🔥": 859,
      "🔨": 860,
      "🔪": 861,
      "🔫": 862,
      "🔮": 863,
      "🔰": 864,
      "🔱": 865,
      "🔲": 866,
      "🔳": 867,
      "🔴": 868,
      "🔵": 869,
      "🔶": 870,
      "🔷": 871,
      "🔸": 872,
      "🔹": 873,
      "🔺": 874,
      "🔻": 875,
      "🔽": 876,
      "🕊": 877,
      "🕋": 878,
      "🕌": 879,
      "🕕": 880,
      "🕺": 881,
      "🖋": 882,
      "🖐": 883,
      "🖕": 884,
      "🖤": 885,
      "🗓": 886,
      "🗣": 887,
      "😀": 888,
      "😁": 889,
      "😂": 890,
      "😃": 891,
      "😄": 892,
      "😅": 893,
      "😆": 894,
      "😇": 895,
      "😈": 896,
      "😉": 897,
      "😊": 898,
      "😋": 899,
      "😌": 900,
      "😍": 901,
      "😎": 902,
      "😏": 903,
      "😐": 904,
      "😑": 905,
      "😒": 906,
      "😓": 907,
      "😔": 908,
      "😕": 909,
      "😖": 910,
      "😗": 911,
      "😘": 912,
      "😙": 913,
      "😚": 914,
      "😛": 915,
      "😜": 916,
      "😝": 917,
      "😞": 918,
      "😟": 919,
      "😠": 920,
      "😡": 921,
      "😢": 922,
      "😣": 923,
      "😤": 924,
      "😥": 925,
      "😦": 926,
      "😧": 927,
      "😨": 928,
      "😩": 929,
      "😪": 930,
      "😫": 931,
      "😬": 932,
      "😭": 933,
      "😮": 934,
      "😯": 935,
      "😰": 936,
      "😱": 937,
      "😲": 938,
      "😳": 939,
      "😴": 940,
      "😵": 941,
      "😶": 942,
      "😷": 943,
      "😸": 944,
      "😹": 945,
      "😺": 946,
      "😻": 947,
      "😿": 948,
      "🙀": 949,
      "🙁": 950,
      "🙂": 951,
      "🙃": 952,
      "🙄": 953,
      "🙅": 954,
      "🙆": 955,
      "🙇": 956,
      "🙈": 957,
      "🙉": 958,
      "🙊": 959,
      "🙋": 960,
      "🙌": 961,
      "🙍": 962,
      "🙎": 963,
      "🙏": 964,
      "🚀": 965,
      "🚈": 966,
      "🚑": 967,
      "🚒": 968,
      "🚓": 969,
      "🚗": 970,
      "🚘": 971,
      "🚨": 972,
      "🚩": 973,
      "🚫": 974,
      "🚬": 975,
      "🚶": 976,
      "🛑": 977,
      "🤐": 978,
      "🤒": 979,
      "🤓": 980,
      "🤔": 981,
      "🤕": 982,
      "🤗": 983,
      "🤘": 984,
      "🤙": 985,
      "🤚": 986,
      "🤝": 987,
      "🤣": 988,
      "🤤": 989,
      "🤦": 990,
      "🤨": 991,
      "🤩": 992,
      "🤪": 993,
      "🤭": 994,
      "🤲": 995,
      "🤷": 996,
      "🥀": 997,
      "🥇": 998,
      "🥰": 999,
      "🥺": 1000,
      "🦅": 1001,
      "🦋": 1002,
      "🧐": 1003,
      "🧡": 1004,
      "##o": 1005,
      "##p": 1006,
      "##و": 1007,
      "##ش": 1008,
      "##ت": 1009,
      "##ر": 1010,
      "##ا": 1011,
      "##ك": 1012,
      "##ل": 1013,
      "##ق": 1014,
      "##ي": 1015,
      "##ب": 1016,
      "##م": 1017,
      "##ن": 1018,
      "##س": 1019,
      "##ج": 1020,
      "##ه": 1021,
      "##خ": 1022,
      "##🤗": 1023,
      "##د": 1024,
      "##ء": 1025,
      "##ع": 1026,
      "##😛": 1027,
      "##😂": 1028,
      "##ی": 1029,
      "##گ": 1030,
      "##ف": 1031,
      "##💜": 1032,
      "##😝": 1033,
      "##😜": 1034,
      "##ک": 1035,
      "##ڈ": 1036,
      "##ﻟ": 1037,
      "##ﻠ": 1038,
      "##ﻔ": 1039,
      "##ﺎ": 1040,
      "##ﻓ": 1041,
      "##ﺔ": 1042,
      "##🎗": 1043,
      "##❤": 1044,
      "##😅": 1045,
      "##ة": 1046,
      "##ط": 1047,
      "##l": 1048,
      "##e": 1049,
      "##t": 1050,
      "##ى": 1051,
      "##3": 1052,
      "##😁": 1053,
      "##r": 1054,
      "##d": 1055,
      "##y": 1056,
      "##n": 1057,
      "##u": 1058,
      "##🔑": 1059,
      "##💖": 1060,
      "##🌾": 1061,
      "##🌸": 1062,
      "##ز": 1063,
      "##٣": 1064,
      "##🌹": 1065,
      "##a": 1066,
      "##j": 1067,
      "##w": 1068,
      "##💚": 1069,
      "##🌟": 1070,
      "##ﮔ": 1071,
      "##ﯙ": 1072,
      "##ﻥ": 1073,
      "##📞": 1074,
      "##😩": 1075,
      "##🤝": 1076,
      "##♥": 1077,
      "##😉": 1078,
      "##♡": 1079,
      "##💙": 1080,
      "##✌": 1081,
      "##5": 1082,
      "##0": 1083,
      "##4": 1084,
      "##1": 1085,
      "##9": 1086,
      "##7": 1087,
      "##👊": 1088,
      "##ث": 1089,
      "##b": 1090,
      "##k": 1091,
      "##ص": 1092,
      "##ح": 1093,
      "##❣": 1094,
      "##ﻮ": 1095,
      "##ﻗ": 1096,
      "##ە": 1097,
      "##✅": 1098,
      "##🙊": 1099,
      "##ض": 1100,
      "##غ": 1101,
      "##s": 1102,
      "##2": 1103,
      "##🎊": 1104,
      "##ظ": 1105,
      "##چ": 1106,
      "##h": 1107,
      "##i": 1108,
      "##ے": 1109,
      "##ﻌ": 1110,
      "##ﻨ": 1111,
      "##٠": 1112,
      "##m": 1113,
      "##🤓": 1114,
      "##c": 1115,
      "##💀": 1116,
      "##😍": 1117,
      "##📢": 1118,
      "##📣": 1119,
      "##😔": 1120,
      "##🌺": 1121,
      "##💞": 1122,
      "##😒": 1123,
      "##ﻷ": 1124,
      "##🙌": 1125,
      "##💔": 1126,
      "##💤": 1127,
      "##ێ": 1128,
      "##😳": 1129,
      "##🌌": 1130,
      "##💘": 1131,
      "##🌷": 1132,
      "##🏻": 1133,
      "##🔹": 1134,
      "##😌": 1135,
      "##ﺭ": 1136,
      "##ﺏ": 1137,
      "##ﻵ": 1138,
      "##ﺷ": 1139,
      "##ﮕ": 1140,
      "##ﺂ": 1141,
      "##ﻝ": 1142,
      "##🤣": 1143,
      "##🔨": 1144,
      "##👈": 1145,
      "##6": 1146,
      "##8": 1147,
      "##😭": 1148,
      "##ذ": 1149,
      "##😴": 1150,
      "##ﺘ": 1151,
      "##ﻤ": 1152,
      "##ﺍ": 1153,
      "##ﻡ": 1154,
      "##ڛ": 1155,
      "##✔": 1156,
      "##ۆ": 1157,
      "##٥": 1158,
      "##٨": 1159,
      "##ھ": 1160,
      "##🤷": 1161,
      "##ﻻ": 1162,
      "##😹": 1163,
      "##✋": 1164,
      "##🏼": 1165,
      "##💐": 1166,
      "##🍀": 1167,
      "##ﺛ": 1168,
      "##ﻘ": 1169,
      "##ﻞ": 1170,
      "##🍁": 1171,
      "##✨": 1172,
      "##f": 1173,
      "##٤": 1174,
      "##😘": 1175,
      "##💕": 1176,
      "##ڤ": 1177,
      "##v": 1178,
      "##🙃": 1179,
      "##✊": 1180,
      "##🔞": 1181,
      "##ﺮ": 1182,
      "##ﺱ": 1183,
      "##🍃": 1184,
      "##💋": 1185,
      "##🚶": 1186,
      "##🎶": 1187,
      "##🖤": 1188,
      "##🤨": 1189,
      "##💌": 1190,
      "##🙈": 1191,
      "##ں": 1192,
      "##🍔": 1193,
      "##😕": 1194,
      "##ﺃ": 1195,
      "##ﺨ": 1196,
      "##ﺹ": 1197,
      "##٢": 1198,
      "##🏿": 1199,
      "##ﻣ": 1200,
      "##ﺣ": 1201,
      "##ﺑ": 1202,
      "##💦": 1203,
      "##👇": 1204,
      "##ﺤ": 1205,
      "##ﻴ": 1206,
      "##ﻚ": 1207,
      "##━": 1208,
      "##╯": 1209,
      "##╮": 1210,
      "##┊": 1211,
      "##🙆": 1212,
      "##🕊": 1213,
      "##ﺳ": 1214,
      "##ﺗ": 1215,
      "##ﻋ": 1216,
      "##😢": 1217,
      "##🙅": 1218,
      "##🙋": 1219,
      "##😤": 1220,
      "##🤦": 1221,
      "##🔥": 1222,
      "##🖐": 1223,
      "##🏽": 1224,
      "##💁": 1225,
      "##🙂": 1226,
      "##😞": 1227,
      "##ﻬ": 1228,
      "##🚨": 1229,
      "##ہ": 1230,
      "##ڕ": 1231,
      "##ﮧ": 1232,
      "##ﮪ": 1233,
      "##💪": 1234,
      "##👏": 1235,
      "##🙏": 1236,
      "##💗": 1237,
      "##💯": 1238,
      "##🤔": 1239,
      "##ﻪ": 1240,
      "##💃": 1241,
      "##📍": 1242,
      "##ﯿ": 1243,
      "##ﻦ": 1244,
      "##ι": 1245,
      "##🎧": 1246,
      "##🔫": 1247,
      "##👍": 1248,
      "##👌": 1249,
      "##g": 1250,
      "##١": 1251,
      "##٩": 1252,
      "##😊": 1253,
      "##🚬": 1254,
      "##🔻": 1255,
      "##ﺠ": 1256,
      "##ﺪ": 1257,
      "##ﻳ": 1258,
      "##💛": 1259,
      "##🔕": 1260,
      "##👀": 1261,
      "##👋": 1262,
      "##ﻭ": 1263,
      "##ﺩ": 1264,
      "##🎁": 1265,
      "##😻": 1266,
      "##👐": 1267,
      "##😱": 1268,
      "##☂": 1269,
      "##☹": 1270,
      "##ٱ": 1271,
      "##٦": 1272,
      "##🌝": 1273,
      "##ﺈ": 1274,
      "##ﻧ": 1275,
      "##ﻰ": 1276,
      "##🌚": 1277,
      "##ﺸ": 1278,
      "##ﻼ": 1279,
      "##☄": 1280,
      "##👑": 1281,
      "##🏃": 1282,
      "##💨": 1283,
      "##™": 1284,
      "##ٲ": 1285,
      "##⁰": 1286,
      "##💫": 1287,
      "##😀": 1288,
      "##✽": 1289,
      "##🤭": 1290,
      "##ڪ": 1291,
      "##⛅": 1292,
      "##❗": 1293,
      "##ژ": 1294,
      "##♂": 1295,
      "##😮": 1296,
      "##🙁": 1297,
      "##ﮬ": 1298,
      "##💭": 1299,
      "##😪": 1300,
      "##☺": 1301,
      "##😄": 1302,
      "##💵": 1303,
      "##💰": 1304,
      "##🇦": 1305,
      "##🇲": 1306,
      "##پ": 1307,
      "##🤙": 1308,
      "##🙄": 1309,
      "##ב": 1310,
      "##❄": 1311,
      "##q": 1312,
      "##🙇": 1313,
      "##👧": 1314,
      "##ٺ": 1315,
      "##😎": 1316,
      "##😖": 1317,
      "##ﻕ": 1318,
      "##🌿": 1319,
      "##ו": 1320,
      "##ﺟ": 1321,
      "##🎵": 1322,
      "##ﺰ": 1323,
      "##❌": 1324,
      "##👎": 1325,
      "##🌙": 1326,
      "##🤤": 1327,
      "##⃣": 1328,
      "##😙": 1329,
      "##💓": 1330,
      "##💝": 1331,
      "##💎": 1332,
      "##ﺻ": 1333,
      "##ﻢ": 1334,
      "##⚜": 1335,
      "##🎬": 1336,
      "##😆": 1337,
      "##👉": 1338,
      "##ﺄ": 1339,
      "##ﺧ": 1340,
      "##י": 1341,
      "##🎉": 1342,
      "##🎈": 1343,
      "##ڵ": 1344,
      "##ᆫ": 1345,
      "##🌼": 1346,
      "##🎤": 1347,
      "##☝": 1348,
      "##ﮐ": 1349,
      "##║": 1350,
      "##ﻛ": 1351,
      "##ﻐ": 1352,
      "##ﺒ": 1353,
      "##ﻈ": 1354,
      "##🚫": 1355,
      "##😧": 1356,
      "##🇸": 1357,
      "##z": 1358,
      "##😬": 1359,
      "##ﻄ": 1360,
      "##ﻂ": 1361,
      "##👽": 1362,
      "##💬": 1363,
      "##ګ": 1364,
      "##√": 1365,
      "##👂": 1366,
      "##٧": 1367,
      "##ﻜ": 1368,
      "##💥": 1369,
      "##🔅": 1370,
      "##🥰": 1371,
      "##ﺀ": 1372,
      "##ڳ": 1373,
      "##🔪": 1374,
      "##😏": 1375,
      "##ﻀ": 1376,
      "##😥": 1377,
      "##▉": 1378,
      "##☁": 1379,
      "##🕺": 1380,
      "##🥺": 1381,
      "##🎼": 1382,
      "##ﻫ": 1383,
      "##ﺴ": 1384,
      "##☆": 1385,
      "##🇴": 1386,
      "##⚽": 1387,
      "##➍": 1388,
      "##💟": 1389,
      "##😈": 1390,
      "##🏾": 1391,
      "##😗": 1392,
      "##🥀": 1393,
      "##ﭠ": 1394,
      "##ﺕ": 1395,
      "##ٹ": 1396,
      "##👆": 1397,
      "##x": 1398,
      "##❓": 1399,
      "##🔴": 1400,
      "##🔐": 1401,
      "##⚠": 1402,
      "##🤲": 1403,
      "##😫": 1404,
      "##😦": 1405,
      "##ڑ": 1406,
      "##ﯽ": 1407,
      "##°": 1408,
      "##🦅": 1409,
      "##ﺐ": 1410,
      "##🙉": 1411,
      "##😨": 1412,
      "##🔸": 1413,
      "##ۈ": 1414,
      "##ﺋ": 1415,
      "##ﺓ": 1416,
      "##ڷ": 1417,
      "##ﮫ": 1418,
      "##🌧": 1419,
      "##🏹": 1420,
      "##ﻑ": 1421,
      "##ﻲ": 1422,
      "##ٻ": 1423,
      "##♤": 1424,
      "##ﻉ": 1425,
      "##ﺼ": 1426,
      "##ﺖ": 1427,
      "##🖕": 1428,
      "##🐪": 1429,
      "##💠": 1430,
      "##♨": 1431,
      "##🔝": 1432,
      "##🐼": 1433,
      "##ﺿ": 1434,
      "##🚗": 1435,
      "##💅": 1436,
      "##ڱ": 1437,
      "##ﭑ": 1438,
      "##➰": 1439,
      "##🤪": 1440,
      "##ۉ": 1441,
      "##ڼ": 1442,
      "##⚡": 1443,
      "##👯": 1444,
      "##ﺾ": 1445,
      "##🎂": 1446,
      "##🏠": 1447,
      "##؏": 1448,
      "##◾": 1449,
      "##😡": 1450,
      "##ﯾ": 1451,
      "##💣": 1452,
      "##😣": 1453,
      "##🌞": 1454,
      "##ۅ": 1455,
      "##🍺": 1456,
      "##💑": 1457,
      "##🏆": 1458,
      "##ﺁ": 1459,
      "##🕋": 1460,
      "##🍂": 1461,
      "##🍒": 1462,
      "##🍉": 1463,
      "##😃": 1464,
      "##פ": 1465,
      "##😑": 1466,
      "##×": 1467,
      "##ﺬ": 1468,
      "##⠀": 1469,
      "##😰": 1470,
      "##☀": 1471,
      "##😇": 1472,
      "##🌈": 1473,
      "##🌱": 1474,
      "##✍": 1475,
      "##🐎": 1476,
      "##α": 1477,
      "##ﺝ": 1478,
      "##ﻃ": 1479,
      "##ﻯ": 1480,
      "##🐸": 1481,
      "##😋": 1482,
      "##🍰": 1483,
      "##ﺌ": 1484,
      "##🧡": 1485,
      "##👄": 1486,
      "##♩": 1487,
      "##⏱": 1488,
      "##✈": 1489,
      "##☕": 1490,
      "##🙍": 1491,
      "##🍓": 1492,
      "##✖": 1493,
      "##♻": 1494,
      "##📌": 1495,
      "##👳": 1496,
      "##👅": 1497,
      "##ﭔ": 1498,
      "##🏡": 1499,
      "##👴": 1500,
      "##🧐": 1501,
      "##🔵": 1502,
      "##🎓": 1503,
      "##⭕": 1504,
      "##ﺞ": 1505,
      "##ډ": 1506,
      "##🎙": 1507,
      "##👿": 1508,
      "##￼": 1509,
      "##🌴": 1510,
      "##ۃ": 1511,
      "##💡": 1512,
      "##❕": 1513,
      "##☻": 1514,
      "##😸": 1515,
      "##🎀": 1516,
      "##👶": 1517,
      "##🇶": 1518,
      "##💆": 1519,
      "##ﻊ": 1520,
      "##ﻩ": 1521,
      "##🌻": 1522,
      "##🎇": 1523,
      "##🎋": 1524,
      "##ﺯ": 1525,
      "##🔆": 1526,
      "##ﻏ": 1527,
      "##←": 1528,
      "##ۍ": 1529,
      "##🌨": 1530,
      "##☔": 1531,
      "##ﻙ": 1532,
      "##😠": 1533,
      "##⬇": 1534,
      "##ﻱ": 1535,
      "##¤": 1536,
      "##🙀": 1537,
      "##💩": 1538,
      "##😐": 1539,
      "##👰": 1540,
      "##💍": 1541,
      "##✿": 1542,
      "##🐑": 1543,
      "##◀": 1544,
      "##🇹": 1545,
      "##🇷": 1546,
      "##🚀": 1547,
      "##😲": 1548,
      "##❁": 1549,
      "##ᅵ": 1550,
      "##ᄋ": 1551,
      "##↪": 1552,
      "##🗣": 1553,
      "##⬅": 1554,
      "##🤚": 1555,
      "##ې": 1556,
      "##🎻": 1557,
      "##ø": 1558,
      "##🇰": 1559,
      "##🇼": 1560,
      "##£": 1561,
      "##↓": 1562,
      "##🇬": 1563,
      "##🤩": 1564,
      "##🌠": 1565,
      "##ﺡ": 1566,
      "##🇾": 1567,
      "##🇪": 1568,
      "##⚪": 1569,
      "##⚫": 1570,
      "##ړ": 1571,
      "##┃": 1572,
      "##🥇": 1573,
      "##🌊": 1574,
      "##🌳": 1575,
      "##®": 1576,
      "##👼": 1577,
      "##🔮": 1578,
      "##ۿ": 1579,
      "##🚑": 1580,
      "##ע": 1581,
      "##🇱": 1582,
      "##😟": 1583,
      "##👻": 1584,
      "##💉": 1585,
      "##⛔": 1586,
      "##۶": 1587,
      "##💢": 1588,
      "##🔰": 1589,
      "##😚": 1590,
      "##ﻹ": 1591,
      "##🇩": 1592,
      "##🇿": 1593,
      "##ﮩ": 1594,
      "##🇧": 1595,
      "##ﻒ": 1596,
      "##۞": 1597,
      "##ღ": 1598,
      "##😷": 1599,
      "##ﷺ": 1600,
      "##ﻶ": 1601,
      "##🤕": 1602,
      "##○": 1603,
      "##♈": 1604,
      "##👭": 1605,
      "##☎": 1606,
      "##🍇": 1607,
      "##˚": 1608,
      "##👹": 1609,
      "##😓": 1610,
      "##🌍": 1611,
      "##ֆ": 1612,
      "##⛈": 1613,
      "##🎆": 1614,
      "##ם": 1615,
      "##✒": 1616,
      "##🚩": 1617,
      "##●": 1618,
      "##ﺶ": 1619,
      "##ﺵ": 1620,
      "##😯": 1621,
      "##ﮨ": 1622,
      "##👤": 1623,
      "##ツ": 1624,
      "##ﺜ": 1625,
      "##ﺚ": 1626,
      "##🇭": 1627,
      "##👒": 1628,
      "##🦋": 1629,
      "##🇮": 1630,
      "##🇳": 1631,
      "##ﺇ": 1632,
      "##ڨ": 1633,
      "##🇵": 1634,
      "##🇫": 1635,
      "##🇯": 1636,
      "##😶": 1637,
      "##👩": 1638,
      "##👣": 1639,
      "##♦": 1640,
      "##☑": 1641,
      "##﮼": 1642,
      "##ﺢ": 1643,
      "##🎯": 1644,
      "##🔙": 1645,
      "##ˆ": 1646,
      "##🎐": 1647,
      "##📻": 1648,
      "##♚": 1649,
      "##ﺲ": 1650,
      "##ı": 1651,
      "##⚘": 1652,
      "##🛑": 1653,
      "##👥": 1654,
      "##🍫": 1655,
      "##🔱": 1656,
      "##😿": 1657,
      "##💧": 1658,
      "##★": 1659,
      "##⛄": 1660,
      "##👫": 1661,
      "##👬": 1662,
      "##▪": 1663,
      "##👦": 1664,
      "##¸": 1665,
      "##✏": 1666,
      "##ۄ": 1667,
      "##🤒": 1668,
      "##🌲": 1669,
      "##ﺆ": 1670,
      "##🐥": 1671,
      "##♔": 1672,
      "##▒": 1673,
      "##ﺫ": 1674,
      "##❎": 1675,
      "##❶": 1676,
      "##ﮯ": 1677,
      "##🎩": 1678,
      "##♧": 1679,
      "##☘": 1680,
      "##😺": 1681,
      "##💮": 1682,
      "##⭐": 1683,
      "##ℓ": 1684,
      "##ɪ": 1685,
      "##۩": 1686,
      "##🐒": 1687,
      "##ﷲ": 1688,
      "##🙎": 1689,
      "##🇨": 1690,
      "##۰": 1691,
      "##🍻": 1692,
      "##ﮑ": 1693,
      "##🍯": 1694,
      "##📸": 1695,
      "##♣": 1696,
      "##ﮭ": 1697,
      "##ﮏ": 1698,
      "##👱": 1699,
      "##ˇ": 1700,
      "##⌣": 1701,
      "##ⓜ": 1702,
      "##👨": 1703,
      "##☞": 1704,
      "##✗": 1705,
      "##❥": 1706,
      "##🤐": 1707,
      "##📱": 1708,
      "##🍷": 1709,
      "##☇": 1710,
      "##📷": 1711,
      "##۲": 1712,
      "##♪": 1713,
      "##👮": 1714,
      "##♬": 1715,
      "##♢": 1716,
      "##⤵": 1717,
      "##ﮱ": 1718,
      "##🐝": 1719,
      "##ﻖ": 1720,
      "##ﻆ": 1721,
      "##м": 1722,
      "##👞": 1723,
      "##✯": 1724,
      "##ﮘ": 1725,
      "##➌": 1726,
      "##✉": 1727,
      "##╭": 1728,
      "##🔃": 1729,
      "##🤘": 1730,
      "##↩": 1731,
      "##ㅤ": 1732,
      "##📿": 1733,
      "##✧": 1734,
      "##ﺺ": 1735,
      "##📖": 1736,
      "##🔷": 1737,
      "##🕌": 1738,
      "##■": 1739,
      "##🐜": 1740,
      "##🔗": 1741,
      "##→": 1742,
      "##┉": 1743,
      "##❈": 1744,
      "##┄": 1745,
      "##📝": 1746,
      "##🌵": 1747,
      "##🎸": 1748,
      "##📚": 1749,
      "##🌇": 1750,
      "##📮": 1751,
      "##═": 1752,
      "##─": 1753,
      "##﷽": 1754,
      "##🎷": 1755,
      "##©": 1756,
      "##🕕": 1757,
      "##👸": 1758,
      "##◎": 1759,
      "##✰": 1760,
      "##⌒": 1761,
      "##🍥": 1762,
      "##②": 1763,
      "##ᅡ": 1764,
      "##🔔": 1765,
      "##❇": 1766,
      "##ٳ": 1767,
      "##🔁": 1768,
      "##🖋": 1769,
      "##🇺": 1770,
      "##😵": 1771,
      "##🌀": 1772,
      "##☜": 1773,
      "##⏳": 1774,
      "##┈": 1775,
      "##❃": 1776,
      "##🚒": 1777,
      "##🏁": 1778,
      "##ﭘ": 1779,
      "##►": 1780,
      "##ﮞ": 1781,
      "##ρ": 1782,
      "##💸": 1783,
      "##✳": 1784,
      "##☟": 1785,
      "##▂": 1786,
      "##🔄": 1787,
      "##ﻁ": 1788,
      "##˘": 1789,
      "##🔶": 1790,
      "##🔊": 1791,
      "##✺": 1792,
      "##🔛": 1793,
      "##ל": 1794,
      "##🌑": 1795,
      "##❀": 1796,
      "##🔳": 1797,
      "##👵": 1798,
      "##✎": 1799,
      "##🔖": 1800,
      "##ﮟ": 1801,
      "##💏": 1802,
      "##ﺅ": 1803,
      "##░": 1804,
      "##🌤": 1805,
      "##ﮓ": 1806,
      "##▶": 1807,
      "##✦": 1808,
      "##ﷻ": 1809,
      "##▓": 1810,
      "##¨": 1811,
      "##🎥": 1812,
      "##📹": 1813,
      "##◦": 1814,
      "##♠": 1815,
      "##˓": 1816,
      "##۱": 1817,
      "##╱": 1818,
      "##📺": 1819,
      "##ﺽ": 1820,
      "##╬": 1821,
      "##╲": 1822,
      "##◆": 1823,
      "##🐣": 1824,
      "##💻": 1825,
      "##ﻇ": 1826,
      "##ט": 1827,
      "##🌕": 1828,
      "##¯": 1829,
      "##▫": 1830,
      "##➏": 1831,
      "##➊": 1832,
      "##🅱": 1833,
      "##🎖": 1834,
      "##🔺": 1835,
      "##🚓": 1836,
      "##˛": 1837,
      "##﷼": 1838,
      "##📯": 1839,
      "##⌚": 1840,
      "##€": 1841,
      "##🔘": 1842,
      "##♀": 1843,
      "##⇠": 1844,
      "##⬛": 1845,
      "##🌎": 1846,
      "##❋": 1847,
      "##｀": 1848,
      "##˺": 1849,
      "##↴": 1850,
      "##✴": 1851,
      "##➐": 1852,
      "##ﺙ": 1853,
      "##🎨": 1854,
      "##ﻸ": 1855,
      "##▄": 1856,
      "##✷": 1857,
      "##📕": 1858,
      "##📲": 1859,
      "##❉": 1860,
      "##🔲": 1861,
      "##┅": 1862,
      "##⏰": 1863,
      "##🌐": 1864,
      "##➋": 1865,
      "##🌰": 1866,
      "##´": 1867,
      "##♫": 1868,
      "##▬": 1869,
      "##🔽": 1870,
      "##┋": 1871,
      "##⇣": 1872,
      "##◄": 1873,
      "##┓": 1874,
      "##◤": 1875,
      "##◥": 1876,
      "##📩": 1877,
      "##ː": 1878,
      "##🆚": 1879,
      "##🚘": 1880,
      "##⇢": 1881,
      "##²": 1882,
      "##🚈": 1883,
      "##ᴗ": 1884,
      "##④": 1885,
      "##╰": 1886,
      "##ヽ": 1887,
      "##➎": 1888,
      "##🅾": 1889,
      "##🗓": 1890,
      "##ﺊ": 1891,
      "##♕": 1892,
      "##➖": 1893,
      "##█": 1894,
      "##ஜ": 1895,
      "##♛": 1896,
      "##┏": 1897,
      "##┛": 1898,
      "##🆗": 1899,
      "##ۊ": 1900,
      "##❊": 1901,
      "##≈": 1902,
      "##❹": 1903,
      "##¬": 1904,
      "##❖": 1905,
      "##◕": 1906,
      "##ﺦ": 1907,
      "##✵": 1908,
      "##⇦": 1909,
      "##⑤": 1910,
      "##≀": 1911,
      "##✥": 1912,
      "##⿻": 1913,
      "##✾": 1914,
      "##①": 1915,
      "##ױ": 1916,
      "##㊗": 1917,
      "##✩": 1918,
      "##◉": 1919,
      "##㊙": 1920,
      "##♯": 1921,
      "##ﾟ": 1922,
      "##❸": 1923,
      "##③": 1924,
      "##❷": 1925,
      "##⑥": 1926,
      "##✹": 1927,
      "##لا": 1928,
      "##ال": 1929,
      "##er": 1930,
      "us": 1931,
      "user": 1932,
      "##له": 1933,
      "##نا": 1934,
      "##rl": 1935,
      "url": 1936,
      "##ان": 1937,
      "##لم": 1938,
      "من": 1939,
      "rt": 1940,
      "##لي": 1941,
      "##لله": 1942,
      "##ين": 1943,
      "الله": 1944,
      "الا": 1945,
      "ان": 1946,
      "في": 1947,
      "##ار": 1948,
      "##ات": 1949,
      "##ير": 1950,
      "الم": 1951,
      "##ها": 1952,
      "##ون": 1953,
      "##لى": 1954,
      "##ما": 1955,
      "لا": 1956,
      "##ري": 1957,
      "##وا": 1958,
      "وا": 1959,
      "##ني": 1960,
      "##بي": 1961,
      "ما": 1962,
      "##را": 1963,
      "##لع": 1964,
      "وال": 1965,
      "##هم": 1966,
      "##لك": 1967,
      "##دي": 1968,
      "##لح": 1969,
      "##لت": 1970,
      "##يا": 1971,
      "##ست": 1972,
      "الع": 1973,
      "##ول": 1974,
      "##اب": 1975,
      "الح": 1976,
      "على": 1977,
      "##وم": 1978,
      "##اي": 1979,
      "##ور": 1980,
      "##لق": 1981,
      "##لس": 1982,
      "اللهم": 1983,
      "##لب": 1984,
      "##ام": 1985,
      "عن": 1986,
      "##لو": 1987,
      "##ية": 1988,
      "##حم": 1989,
      "##يت": 1990,
      "الس": 1991,
      "##اء": 1992,
      "##عد": 1993,
      "بال": 1994,
      "##فر": 1995,
      "اح": 1996,
      "##اد": 1997,
      "علي": 1998,
      "##ذا": 1999,
      "الت": 2000,
      "مع": 2001,
      "##كم": 2002,
      "##كر": 2003,
      "##لد": 2004,
      "##لج": 2005,
      "##لش": 2006,
      "##من": 2007,
      "##مي": 2008,
      "كل": 2009,
      "##بر": 2010,
      "لي": 2011,
      "الق": 2012,
      "##في": 2013,
      "الج": 2014,
      "##لن": 2015,
      "الش": 2016,
      "##با": 2017,
      "##دا": 2018,
      "الي": 2019,
      "ولا": 2020,
      "##عو": 2021,
      "##يم": 2022,
      "يا": 2023,
      "اس": 2024,
      "الد": 2025,
      "##لف": 2026,
      "##لص": 2027,
      "الب": 2028,
      "##يد": 2029,
      "انت": 2030,
      "ام": 2031,
      "##عم": 2032,
      "الن": 2033,
      "الك": 2034,
      "##تك": 2035,
      "##رف": 2036,
      "##لنا": 2037,
      "##رب": 2038,
      "##فس": 2039,
      "الص": 2040,
      "اب": 2041,
      "اله": 2042,
      "انا": 2043,
      "##اف": 2044,
      "##رو": 2045,
      "##يب": 2046,
      "##لخ": 2047,
      "##اج": 2048,
      "##بح": 2049,
      "او": 2050,
      "##حد": 2051,
      "##نت": 2052,
      "لك": 2053,
      "##اع": 2054,
      "##لام": 2055,
      "##لذ": 2056,
      "الخ": 2057,
      "##للي": 2058,
      "##قي": 2059,
      "##حب": 2060,
      "اللي": 2061,
      "##قد": 2062,
      "وت": 2063,
      "اخ": 2064,
      "اك": 2065,
      "##جع": 2066,
      "##رك": 2067,
      "##مع": 2068,
      "الذ": 2069,
      "الف": 2070,
      "بس": 2071,
      "##يه": 2072,
      "##رض": 2073,
      "##اس": 2074,
      "است": 2075,
      "##تي": 2076,
      "##حمد": 2077,
      "وان": 2078,
      "كان": 2079,
      "اع": 2080,
      "رب": 2081,
      "شي": 2082,
      "##غفر": 2083,
      "##لة": 2084,
      "##اه": 2085,
      "##ود": 2086,
      "تع": 2087,
      "##ته": 2088,
      "##رة": 2089,
      "وب": 2090,
      "الو": 2091,
      "##لط": 2092,
      "مش": 2093,
      "بك": 2094,
      "##وي": 2095,
      "##وق": 2096,
      "##رج": 2097,
      "هو": 2098,
      "##يف": 2099,
      "##وت": 2100,
      "##مد": 2101,
      "يع": 2102,
      "##وف": 2103,
      "مت": 2104,
      "اني": 2105,
      "##اني": 2106,
      "##وب": 2107,
      "وس": 2108,
      "النا": 2109,
      "##شر": 2110,
      "##مر": 2111,
      "بعد": 2112,
      "##حي": 2113,
      "با": 2114,
      "##حت": 2115,
      "اج": 2116,
      "##صر": 2117,
      "له": 2118,
      "نفس": 2119,
      "##قت": 2120,
      "عند": 2121,
      "لو": 2122,
      "وي": 2123,
      "يوم": 2124,
      "##نة": 2125,
      "اش": 2126,
      "الى": 2127,
      "##رد": 2128,
      "##عب": 2129,
      "ات": 2130,
      "##لغ": 2131,
      "##الك": 2132,
      "اي": 2133,
      "لم": 2134,
      "##قة": 2135,
      "وع": 2136,
      "##ويت": 2137,
      "##دة": 2138,
      "مس": 2139,
      "اذا": 2140,
      "##قول": 2141,
      "قال": 2142,
      "بت": 2143,
      "##الم": 2144,
      "حس": 2145,
      "##بل": 2146,
      "##سي": 2147,
      "##بحان": 2148,
      "##اح": 2149,
      "##ثر": 2150,
      "##هو": 2151,
      "##كن": 2152,
      "سبحان": 2153,
      "الان": 2154,
      "بي": 2155,
      "اص": 2156,
      "يت": 2157,
      "هذا": 2158,
      "وم": 2159,
      "##وك": 2160,
      "##مل": 2161,
      "ار": 2162,
      "بع": 2163,
      "##بار": 2164,
      "##يل": 2165,
      "##اك": 2166,
      "قد": 2167,
      "##فت": 2168,
      "بن": 2169,
      "##عة": 2170,
      "##مة": 2171,
      "##كون": 2172,
      "##جد": 2173,
      "##بد": 2174,
      "##بت": 2175,
      "والا": 2176,
      "عليه": 2177,
      "##وس": 2178,
      "##هد": 2179,
      "الط": 2180,
      "##لر": 2181,
      "##قا": 2182,
      "##يني": 2183,
      "##لبي": 2184,
      "##ره": 2185,
      "يس": 2186,
      "##ورة": 2187,
      "والله": 2188,
      "##الي": 2189,
      "##ارب": 2190,
      "##خص": 2191,
      "الر": 2192,
      "وج": 2193,
      "تح": 2194,
      "الناس": 2195,
      "الغ": 2196,
      "غير": 2197,
      "خير": 2198,
      "بين": 2199,
      "الحمد": 2200,
      "##مت": 2201,
      "##يات": 2202,
      "##ظيم": 2203,
      "فا": 2204,
      "##هر": 2205,
      "##عوذ": 2206,
      "##باح": 2207,
      "##كت": 2208,
      "وق": 2209,
      "مو": 2210,
      "##تى": 2211,
      "ون": 2212,
      "##ضي": 2213,
      "الذي": 2214,
      "هي": 2215,
      "##رت": 2216,
      "##مه": 2217,
      "##نيا": 2218,
      "اه": 2219,
      "##لها": 2220,
      "اليوم": 2221,
      "بد": 2222,
      "##قط": 2223,
      "##وع": 2224,
      "##صل": 2225,
      "وك": 2226,
      "تت": 2227,
      "##اري": 2228,
      "ومن": 2229,
      "##فع": 2230,
      "ht": 2231,
      "محمد": 2232,
      "الاخ": 2233,
      "##به": 2234,
      "##بك": 2235,
      "##لز": 2236,
      "انك": 2237,
      "##ده": 2238,
      "تس": 2239,
      "##اق": 2240,
      "حتى": 2241,
      "##لال": 2242,
      "المس": 2243,
      "##زي": 2244,
      "##جعل": 2245,
      "htt": 2246,
      "##فض": 2247,
      "اق": 2248,
      "اد": 2249,
      "عم": 2250,
      "احد": 2251,
      "##ذه": 2252,
      "##حة": 2253,
      "وش": 2254,
      "##عا": 2255,
      "##ذكر": 2256,
      "ربي": 2257,
      "##سم": 2258,
      "تق": 2259,
      "##نه": 2260,
      "##وات": 2261,
      "وما": 2262,
      "الام": 2263,
      "##قى": 2264,
      "شيء": 2265,
      "##طر": 2266,
      "به": 2267,
      "##عي": 2268,
      "فيه": 2269,
      "يارب": 2270,
      "http": 2271,
      "وانت": 2272,
      "لما": 2273,
      "##عاء": 2274,
      "##اص": 2275,
      "عش": 2276,
      "جمي": 2277,
      "##سان": 2278,
      "لن": 2279,
      "##سب": 2280,
      "##سن": 2281,
      "##يك": 2282,
      "العظيم": 2283,
      "لله": 2284,
      "##غير": 2285,
      "الدنيا": 2286,
      "##قه": 2287,
      "ين": 2288,
      "الز": 2289,
      "##وري": 2290,
      "##لوا": 2291,
      "##لوب": 2292,
      "تن": 2293,
      "##لث": 2294,
      "مد": 2295,
      "وح": 2296,
      "##مس": 2297,
      "استغفر": 2298,
      "قلب": 2299,
      "##عاد": 2300,
      "##الله": 2301,
      "##ياة": 2302,
      "كنت": 2303,
      "لنا": 2304,
      "##رق": 2305,
      "تش": 2306,
      "انه": 2307,
      "##رح": 2308,
      "مج": 2309,
      "خلق": 2310,
      "##طي": 2311,
      "##ارة": 2312,
      "فان": 2313,
      "يح": 2314,
      "الث": 2315,
      "لان": 2316,
      "##وز": 2317,
      "##ربي": 2318,
      "##زق": 2319,
      "##رم": 2320,
      "عبد": 2321,
      "تب": 2322,
      "##عودي": 2323,
      "وسلم": 2324,
      "يم": 2325,
      "##خل": 2326,
      "##سر": 2327,
      "يق": 2328,
      "مث": 2329,
      "##يام": 2330,
      "قبل": 2331,
      "##وه": 2332,
      "##صد": 2333,
      "يست": 2334,
      "##وج": 2335,
      "وهو": 2336,
      "اعوذ": 2337,
      "يخ": 2338,
      "الاس": 2339,
      "##عت": 2340,
      "##زل": 2341,
      "قلبي": 2342,
      "##يش": 2343,
      "##ثير": 2344,
      "واحد": 2345,
      "يش": 2346,
      "اسالك": 2347,
      "صباح": 2348,
      "اكثر": 2349,
      "##حك": 2350,
      "حاج": 2351,
      "##رش": 2352,
      "عد": 2353,
      "##ذاب": 2354,
      "##فا": 2355,
      "##لات": 2356,
      "كلم": 2357,
      "صد": 2358,
      "يج": 2359,
      "تخ": 2360,
      "مست": 2361,
      "##ريد": 2362,
      "##وة": 2363,
      "وص": 2364,
      "بح": 2365,
      "يد": 2366,
      "التي": 2367,
      "##زن": 2368,
      "رس": 2369,
      "مح": 2370,
      "للم": 2371,
      "هه": 2372,
      "عليك": 2373,
      "تج": 2374,
      "حد": 2375,
      "##هي": 2376,
      "##خير": 2377,
      "للا": 2378,
      "##ريق": 2379,
      "##تح": 2380,
      "وانا": 2381,
      "سي": 2382,
      "##وال": 2383,
      "##ولي": 2384,
      "##زم": 2385,
      "تم": 2386,
      "##ادي": 2387,
      "##عه": 2388,
      "##نين": 2389,
      "شخص": 2390,
      "ثم": 2391,
      "##وح": 2392,
      "##رس": 2393,
      "##راء": 2394,
      "ولك": 2395,
      "😂😂": 2396,
      "##ارك": 2397,
      "وات": 2398,
      "الخير": 2399,
      "##فظ": 2400,
      "##اتي": 2401,
      "تص": 2402,
      "##نات": 2403,
      "حيات": 2404,
      "تد": 2405,
      "##ظر": 2406,
      "##وى": 2407,
      "فيها": 2408,
      "##رى": 2409,
      "ربنا": 2410,
      "##شي": 2411,
      "هم": 2412,
      "هذه": 2413,
      "بعض": 2414,
      "##وني": 2415,
      "يو": 2416,
      "بق": 2417,
      "اكبر": 2418,
      "##جر": 2419,
      "شك": 2420,
      "وار": 2421,
      "فى": 2422,
      "##ابع": 2423,
      "##ديد": 2424,
      "عشان": 2425,
      "##بة": 2426,
      "##الح": 2427,
      "##مان": 2428,
      "##مام": 2429,
      "##اض": 2430,
      "السعودي": 2431,
      "شر": 2432,
      "اغ": 2433,
      "هنا": 2434,
      "كت": 2435,
      "##يس": 2436,
      "العالم": 2437,
      "يب": 2438,
      "والم": 2439,
      "##لظ": 2440,
      "دي": 2441,
      "مات": 2442,
      "##لون": 2443,
      "##يرة": 2444,
      "##لاة": 2445,
      "##اش": 2446,
      "لكن": 2447,
      "##فضل": 2448,
      "نس": 2449,
      "##خر": 2450,
      "##فو": 2451,
      "مك": 2452,
      "##رام": 2453,
      "##طن": 2454,
      "##ra": 2455,
      "الحياة": 2456,
      "الظ": 2457,
      "بالله": 2458,
      "اذ": 2459,
      "##ند": 2460,
      "تف": 2461,
      "##لري": 2462,
      "الشي": 2463,
      "##نى": 2464,
      "وز": 2465,
      "##رحم": 2466,
      "بم": 2467,
      "الذين": 2468,
      "رحم": 2469,
      "اليه": 2470,
      "##بع": 2471,
      "دا": 2472,
      "##عل": 2473,
      "يقول": 2474,
      "المت": 2475,
      "داي": 2476,
      "لت": 2477,
      "احب": 2478,
      "##ريك": 2479,
      "كيف": 2480,
      "فت": 2481,
      "##جا": 2482,
      "##وض": 2483,
      "##ياء": 2484,
      "##اله": 2485,
      "دعاء": 2486,
      "الري": 2487,
      "عي": 2488,
      "##لرا": 2489,
      "مص": 2490,
      "تك": 2491,
      "##فق": 2492,
      "الملك": 2493,
      "تط": 2494,
      "https": 2495,
      "##ريم": 2496,
      "لات": 2497,
      "##لهم": 2498,
      "مخ": 2499,
      "##ارات": 2500,
      "علم": 2501,
      "##وء": 2502,
      "اول": 2503,
      "عام": 2504,
      "ولي": 2505,
      "يكون": 2506,
      "##وان": 2507,
      "بالا": 2508,
      "الرا": 2509,
      "مر": 2510,
      "وه": 2511,
      "السما": 2512,
      "تو": 2513,
      "اغفر": 2514,
      "##حق": 2515,
      "بش": 2516,
      "ليس": 2517,
      "##زة": 2518,
      "##جل": 2519,
      "وبحمد": 2520,
      "اف": 2521,
      "##عر": 2522,
      "##ميع": 2523,
      "##ولة": 2524,
      "##اط": 2525,
      "##قب": 2526,
      "20": 2527,
      "مه": 2528,
      "بان": 2529,
      "##رية": 2530,
      "##تم": 2531,
      "صلى": 2532,
      "عذاب": 2533,
      "##قل": 2534,
      "يص": 2535,
      "ري": 2536,
      "فلا": 2537,
      "نص": 2538,
      "وحد": 2539,
      "بها": 2540,
      "لح": 2541,
      "##عمل": 2542,
      "بلا": 2543,
      "الجنة": 2544,
      "اخر": 2545,
      "##روح": 2546,
      "مم": 2547,
      "##ران": 2548,
      "##ضع": 2549,
      "##كي": 2550,
      "جدا": 2551,
      "##حيح": 2552,
      "##دم": 2553,
      "راي": 2554,
      "##ذي": 2555,
      "لهم": 2556,
      "كما": 2557,
      "حق": 2558,
      "##لفر": 2559,
      "##بير": 2560,
      "##جي": 2561,
      "ده": 2562,
      "##اعة": 2563,
      "##الة": 2564,
      "تست": 2565,
      "##جب": 2566,
      "بص": 2567,
      "حي": 2568,
      "تغ": 2569,
      "##لاق": 2570,
      "##تر": 2571,
      "هل": 2572,
      "الهلال": 2573,
      "كثير": 2574,
      "اط": 2575,
      "حبي": 2576,
      "كن": 2577,
      "نح": 2578,
      "يعني": 2579,
      "الفر": 2580,
      "##مال": 2581,
      "المن": 2582,
      "##قدر": 2583,
      "##بط": 2584,
      "ايه": 2585,
      "المش": 2586,
      "مي": 2587,
      "عب": 2588,
      "بما": 2589,
      "الارض": 2590,
      "##فة": 2591,
      "##رين": 2592,
      "##علم": 2593,
      "تكون": 2594,
      "قلوب": 2595,
      "##خذ": 2596,
      "بط": 2597,
      "##تويت": 2598,
      "##جه": 2599,
      "##بارك": 2600,
      "عمر": 2601,
      "نفسي": 2602,
      "##كار": 2603,
      "##لرج": 2604,
      "اجمل": 2605,
      "تحت": 2606,
      "ذن": 2607,
      "##نية": 2608,
      "##وله": 2609,
      "##اهد": 2610,
      "##مض": 2611,
      "مق": 2612,
      "##لل": 2613,
      "مثل": 2614,
      "##ينة": 2615,
      "ست": 2616,
      "المسلم": 2617,
      "##فه": 2618,
      "ذلك": 2619,
      "عاي": 2620,
      "##كره": 2621,
      "لق": 2622,
      "الحب": 2623,
      "رسول": 2624,
      "عندما": 2625,
      "##تها": 2626,
      "تحب": 2627,
      "##اته": 2628,
      "##it": 2629,
      "حب": 2630,
      "##هل": 2631,
      "##سى": 2632,
      "الاع": 2633,
      "##طا": 2634,
      "الرج": 2635,
      "نعم": 2636,
      "الاح": 2637,
      "اض": 2638,
      "صح": 2639,
      "راح": 2640,
      "##عود": 2641,
      "صحيح": 2642,
      "كانت": 2643,
      "##وية": 2644,
      "##اة": 2645,
      "##امة": 2646,
      "والع": 2647,
      "##باب": 2648,
      "ود": 2649,
      "دايما": 2650,
      "##بنا": 2651,
      "لها": 2652,
      "وبحمده": 2653,
      "##بب": 2654,
      "##لاث": 2655,
      "##زا": 2656,
      "مب": 2657,
      "فقط": 2658,
      "ولكن": 2659,
      "##حه": 2660,
      "منك": 2661,
      "##نام": 2662,
      "وفي": 2663,
      "##ad": 2664,
      "##ضر": 2665,
      "المد": 2666,
      "##انا": 2667,
      "واس": 2668,
      "##سل": 2669,
      "فر": 2670,
      "ذكر": 2671,
      "##فل": 2672,
      "منا": 2673,
      "##كل": 2674,
      "دون": 2675,
      "النار": 2676,
      "الانسان": 2677,
      "##اعد": 2678,
      "سورة": 2679,
      "كلام": 2680,
      "نفسك": 2681,
      "##الد": 2682,
      "مصر": 2683,
      "علينا": 2684,
      "##لفي": 2685,
      "ناس": 2686,
      "اجعل": 2687,
      "##لية": 2688,
      "صل": 2689,
      "الاه": 2690,
      "منه": 2691,
      "##عادة": 2692,
      "حين": 2693,
      "نفسه": 2694,
      "عدد": 2695,
      "نبي": 2696,
      "واتوب": 2697,
      "حلو": 2698,
      "احت": 2699,
      "ولم": 2700,
      "طيب": 2701,
      "ابي": 2702,
      "##اتك": 2703,
      "بر": 2704,
      "##مضان": 2705,
      "##راق": 2706,
      "##راه": 2707,
      "##ناء": 2708,
      "لمن": 2709,
      "والت": 2710,
      "وف": 2711,
      "##ليل": 2712,
      "##امل": 2713,
      "الاست": 2714,
      "##ذن": 2715,
      "رمضان": 2716,
      "وجه": 2717,
      "##نون": 2718,
      "##ذر": 2719,
      "##وار": 2720,
      "##وره": 2721,
      "الوا": 2722,
      "توك": 2723,
      "ابو": 2724,
      "##لض": 2725,
      "المص": 2726,
      "يك": 2727,
      "##ذب": 2728,
      "يحب": 2729,
      "##اية": 2730,
      "فع": 2731,
      "##لين": 2732,
      "##ليم": 2733,
      "ابت": 2734,
      "##سة": 2735,
      "رتويت": 2736,
      "اعت": 2737,
      "حساب": 2738,
      "كله": 2739,
      "امن": 2740,
      "ماي": 2741,
      "واح": 2742,
      "يط": 2743,
      "بل": 2744,
      "##ينك": 2745,
      "قص": 2746,
      "##جز": 2747,
      "نت": 2748,
      "##ظم": 2749,
      "##ريب": 2750,
      "افضل": 2751,
      "##ran": 2752,
      "بيت": 2753,
      "للت": 2754,
      "مط": 2755,
      "##عرف": 2756,
      "الض": 2757,
      "##وقع": 2758,
      "النصر": 2759,
      "ولو": 2760,
      "السعودية": 2761,
      "الاش": 2762,
      "##طة": 2763,
      "اليك": 2764,
      "ابن": 2765,
      "##لاء": 2766,
      "غرد": 2767,
      "كم": 2768,
      "##ديو": 2769,
      "##قبل": 2770,
      "ملي": 2771,
      "لكم": 2772,
      "اث": 2773,
      "qu": 2774,
      "المح": 2775,
      "احسن": 2776,
      "##روب": 2777,
      "##در": 2778,
      "هناك": 2779,
      "##نع": 2780,
      "##حتاج": 2781,
      "ور": 2782,
      "##سا": 2783,
      "بذكر": 2784,
      "الحمدلله": 2785,
      "##واب": 2786,
      "وقت": 2787,
      "##يادة": 2788,
      "##فار": 2789,
      "عنا": 2790,
      "##ith": 2791,
      "شع": 2792,
      "##شف": 2793,
      "quran": 2794,
      "وخ": 2795,
      "المج": 2796,
      "##الب": 2797,
      "##احب": 2798,
      "از": 2799,
      "القلب": 2800,
      "##عيد": 2801,
      "قل": 2802,
      "شاء": 2803,
      "المست": 2804,
      "##زيز": 2805,
      "جن": 2806,
      "فيك": 2807,
      "##معة": 2808,
      "##ينه": 2809,
      "اشت": 2810,
      "##جود": 2811,
      "##لان": 2812,
      "يف": 2813,
      "موا": 2814,
      "##ولو": 2815,
      "##حدث": 2816,
      "ارحم": 2817,
      "##ديث": 2818,
      "ترك": 2819,
      "صورة": 2820,
      "##ليك": 2821,
      "##كان": 2822,
      "اذكار": 2823,
      "والح": 2824,
      "##فيه": 2825,
      "عني": 2826,
      "حاجة": 2827,
      "##وط": 2828,
      "##ايل": 2829,
      "واعوذ": 2830,
      "اما": 2831,
      "زي": 2832,
      "##اريخ": 2833,
      "عمل": 2834,
      "احس": 2835,
      "##يران": 2836,
      "##منى": 2837,
      "##طف": 2838,
      "عليها": 2839,
      "##ايد": 2840,
      "بكل": 2841,
      "بسم": 2842,
      "نشر": 2843,
      "وحده": 2844,
      "##adith": 2845,
      "اصبح": 2846,
      "201": 2847,
      "والس": 2848,
      "فال": 2849,
      "عباد": 2850,
      "##يتك": 2851,
      "وعم": 2852,
      "رج": 2853,
      "hadith": 2854,
      "لكل": 2855,
      "حال": 2856,
      "يغ": 2857,
      "شكرا": 2858,
      "##كتب": 2859,
      "اخت": 2860,
      "تويت": 2861,
      "الفي": 2862,
      "مبر": 2863,
      "##in": 2864,
      "ﺍﻟ": 2865,
      "##ياه": 2866,
      "##تب": 2867,
      "جميل": 2868,
      "الليل": 2869,
      "##اهل": 2870,
      "##ايي": 2871,
      "جدي": 2872,
      "##نك": 2873,
      "سبحانك": 2874,
      "العربي": 2875,
      "##سه": 2876,
      "الشيخ": 2877,
      "يمكن": 2878,
      "ايام": 2879,
      "##حاب": 2880,
      "عاف": 2881,
      "##تاب": 2882,
      "تعلم": 2883,
      "##مو": 2884,
      "سن": 2885,
      "##افر": 2886,
      "رو": 2887,
      "##اره": 2888,
      "وين": 2889,
      "السلام": 2890,
      "خط": 2891,
      "قلبك": 2892,
      "##قدم": 2893,
      "##ساب": 2894,
      "##لعب": 2895,
      "المع": 2896,
      "لع": 2897,
      "ليه": 2898,
      "وط": 2899,
      "ممكن": 2900,
      "مسلم": 2901,
      "ثلاث": 2902,
      "##طان": 2903,
      "ابدا": 2904,
      "النبي": 2905,
      "##يري": 2906,
      "تر": 2907,
      "نج": 2908,
      "##رضى": 2909,
      "وكل": 2910,
      "فقد": 2911,
      "##وفي": 2912,
      "عق": 2913,
      "حاجه": 2914,
      "##ونك": 2915,
      "##كرة": 2916,
      "##00": 2917,
      "عنه": 2918,
      "##بية": 2919,
      "شاهد": 2920,
      "##ايف": 2921,
      "##تنا": 2922,
      "حم": 2923,
      "##سك": 2924,
      "لاي": 2925,
      "الدين": 2926,
      "عار": 2927,
      "انها": 2928,
      "##يي": 2929,
      "##روف": 2930,
      "##ذلك": 2931,
      "##فتح": 2932,
      "##رضا": 2933,
      "##ايم": 2934,
      "##صف": 2935,
      "##المين": 2936,
      "طي": 2937,
      "##قم": 2938,
      "الذكر": 2939,
      "##جة": 2940,
      "البي": 2941,
      "##دية": 2942,
      "##الى": 2943,
      "##لمات": 2944,
      "##غي": 2945,
      "##زه": 2946,
      "واخ": 2947,
      "القران": 2948,
      "بالم": 2949,
      "##ماء": 2950,
      "##للى": 2951,
      "منها": 2952,
      "وعلى": 2953,
      "اللى": 2954,
      "##وش": 2955,
      "ارزق": 2956,
      "سوا": 2957,
      "##قال": 2958,
      "##اعر": 2959,
      "هد": 2960,
      "##ولك": 2961,
      "##قين": 2962,
      "والارض": 2963,
      "##لاص": 2964,
      "##ركة": 2965,
      "##ادر": 2966,
      "##ومة": 2967,
      "مكان": 2968,
      "##انية": 2969,
      "##تهم": 2970,
      "الكويت": 2971,
      "البح": 2972,
      "قر": 2973,
      "طب": 2974,
      "##ضا": 2975,
      "مرة": 2976,
      "المسلمين": 2977,
      "فوق": 2978,
      "ير": 2979,
      "##جاب": 2980,
      "هال": 2981,
      "واص": 2982,
      "##راك": 2983,
      "مهما": 2984,
      "الصباح": 2985,
      "امي": 2986,
      "بالت": 2987,
      "توكلت": 2988,
      "##قيقة": 2989,
      "##جعلنا": 2990,
      "##ايق": 2991,
      "حياتك": 2992,
      "فض": 2993,
      "قب": 2994,
      "عاد": 2995,
      "حول": 2996,
      "سلم": 2997,
      "##ايب": 2998,
      "##ظة": 2999,
      "##افة": 3000,
      "احمد": 3001,
      "الصلاة": 3002,
      "##وقف": 3003,
      "هت": 3004,
      "الاتح": 3005,
      "منهم": 3006,
      "للح": 3007,
      "##ونا": 3008,
      "##قر": 3009,
      "دعو": 3010,
      "عاج": 3011,
      "اسم": 3012,
      "الاهلي": 3013,
      "##عون": 3014,
      "بج": 3015,
      "##غم": 3016,
      "للد": 3017,
      "باب": 3018,
      "##يرا": 3019,
      "عليكم": 3020,
      "##غل": 3021,
      "جميع": 3022,
      "واست": 3023,
      "يه": 3024,
      "صار": 3025,
      "##قص": 3026,
      "لد": 3027,
      "يعلم": 3028,
      "بدون": 3029,
      "الاذ": 3030,
      "السماوات": 3031,
      "كثيرا": 3032,
      "##لاح": 3033,
      "را": 3034,
      "##زين": 3035,
      "##اول": 3036,
      "عندك": 3037,
      "##صدق": 3038,
      "تعرف": 3039,
      "عليهم": 3040,
      "ريت": 3041,
      "##يوم": 3042,
      "##ولا": 3043,
      "الكلام": 3044,
      "##اخ": 3045,
      "نظ": 3046,
      "##نان": 3047,
      "احبك": 3048,
      "عين": 3049,
      "حسبي": 3050,
      "قلوبنا": 3051,
      "قوة": 3052,
      "##فاء": 3053,
      "الصالح": 3054,
      "سمع": 3055,
      "وغ": 3056,
      "##ويه": 3057,
      "##رها": 3058,
      "الوقت": 3059,
      "ترا": 3060,
      "كده": 3061,
      "الجن": 3062,
      "خلقه": 3063,
      "للع": 3064,
      "الاول": 3065,
      "انتي": 3066,
      "اهل": 3067,
      "وله": 3068,
      "احنا": 3069,
      "##فرح": 3070,
      "صور": 3071,
      "متابع": 3072,
      "نحن": 3073,
      "نش": 3074,
      "##قع": 3075,
      "الاتحاد": 3076,
      "باس": 3077,
      "واذا": 3078,
      "لج": 3079,
      "السي": 3080,
      "عندي": 3081,
      "الدعاء": 3082,
      "مني": 3083,
      "الموم": 3084,
      "لازم": 3085,
      "##انه": 3086,
      "عبدال": 3087,
      "السماء": 3088,
      "مغ": 3089,
      "##باراة": 3090,
      "وارحم": 3091,
      "بخير": 3092,
      "فرح": 3093,
      "شريك": 3094,
      "##قطع": 3095,
      "والص": 3096,
      "##al": 3097,
      "قدير": 3098,
      "كلها": 3099,
      "##بيق": 3100,
      "الموا": 3101,
      "كبير": 3102,
      "رح": 3103,
      "يال": 3104,
      "##قف": 3105,
      "عنك": 3106,
      "##ou": 3107,
      "فولو": 3108,
      "جد": 3109,
      "##يق": 3110,
      "##راف": 3111,
      "عز": 3112,
      "والك": 3113,
      "عرف": 3114,
      "##خي": 3115,
      "##اذ": 3116,
      "اعلم": 3117,
      "اهم": 3118,
      "الرياض": 3119,
      "مره": 3120,
      "حك": 3121,
      "تز": 3122,
      "خلي": 3123,
      "##لاب": 3124,
      "عا": 3125,
      "الظالمين": 3126,
      "رد": 3127,
      "يز": 3128,
      "والحمد": 3129,
      "جديد": 3130,
      "والش": 3131,
      "##افية": 3132,
      "الرحم": 3133,
      "##ياب": 3134,
      "##ارس": 3135,
      "جع": 3136,
      "ته": 3137,
      "##عيم": 3138,
      "##طيع": 3139,
      "جما": 3140,
      "##تني": 3141,
      "كف": 3142,
      "##يره": 3143,
      "امر": 3144,
      "انسان": 3145,
      "ساع": 3146,
      "تقول": 3147,
      "##تكلم": 3148,
      "الموت": 3149,
      "راس": 3150,
      "الل": 3151,
      "##روج": 3152,
      "الشخص": 3153,
      "ريتويت": 3154,
      "نبينا": 3155,
      "##شق": 3156,
      "##كس": 3157,
      "الهم": 3158,
      "الاسلام": 3159,
      "##خت": 3160,
      "سه": 3161,
      "##راة": 3162,
      "##لته": 3163,
      "صاحب": 3164,
      "عيني": 3165,
      "##ديه": 3166,
      "##جم": 3167,
      "##لوم": 3168,
      "ياب": 3169,
      "##برك": 3170,
      "سنة": 3171,
      "امين": 3172,
      "##حمل": 3173,
      "##تين": 3174,
      "امام": 3175,
      "##نيه": 3176,
      "##ايه": 3177,
      "يض": 3178,
      "نا": 3179,
      "يوما": 3180,
      "ورا": 3181,
      "مبروك": 3182,
      "نها": 3183,
      "##ميل": 3184,
      "##وص": 3185,
      "الاذان": 3186,
      "##ونه": 3187,
      "تجعل": 3188,
      "العرش": 3189,
      "##ضاء": 3190,
      "جز": 3191,
      "##هار": 3192,
      "سيد": 3193,
      "##ناه": 3194,
      "##ديم": 3195,
      "معا": 3196,
      "##an": 3197,
      "غيرك": 3198,
      "سير": 3199,
      "الحق": 3200,
      "قلت": 3201,
      "ينت": 3202,
      "مما": 3203,
      "##خاص": 3204,
      "ها": 3205,
      "بنت": 3206,
      "##en": 3207,
      "##حبه": 3208,
      "##😂😂": 3209,
      "تويتر": 3210,
      "##رع": 3211,
      "شييا": 3212,
      "الحزن": 3213,
      "روح": 3214,
      "التع": 3215,
      "ربك": 3216,
      "واب": 3217,
      "النفس": 3218,
      "ممن": 3219,
      "##سام": 3220,
      "عط": 3221,
      "سوري": 3222,
      "##ارج": 3223,
      "خيرا": 3224,
      "معك": 3225,
      "البخ": 3226,
      "##اتنا": 3227,
      "خلال": 3228,
      "##حيل": 3229,
      "الانت": 3230,
      "الامارات": 3231,
      "عبدالله": 3232,
      "بالن": 3233,
      "##كري": 3234,
      "القبر": 3235,
      "يعرف": 3236,
      "##شت": 3237,
      "وهم": 3238,
      "يرحم": 3239,
      "##يته": 3240,
      "##خول": 3241,
      "اعرف": 3242,
      "ارا": 3243,
      "##رفع": 3244,
      "ضد": 3245,
      "##ديق": 3246,
      "مرت": 3247,
      "لب": 3248,
      "طيبا": 3249,
      "ملك": 3250,
      "موت": 3251,
      "حسن": 3252,
      "مان": 3253,
      "ترى": 3254,
      "##يمة": 3255,
      "فيديو": 3256,
      "الجمعة": 3257,
      "حياتي": 3258,
      "##يبة": 3259,
      "الاج": 3260,
      "##صار": 3261,
      "##ليه": 3262,
      "ظلم": 3263,
      "والد": 3264,
      "ول": 3265,
      "وض": 3266,
      "الايام": 3267,
      "والن": 3268,
      "جه": 3269,
      "نف": 3270,
      "قول": 3271,
      "بغ": 3272,
      "للج": 3273,
      "##لامي": 3274,
      "##قيق": 3275,
      "لاعب": 3276,
      "##فك": 3277,
      "##امي": 3278,
      "منت": 3279,
      "محد": 3280,
      "##الية": 3281,
      "شهر": 3282,
      "القلوب": 3283,
      "العمر": 3284,
      "##صي": 3285,
      "رييس": 3286,
      "ناف": 3287,
      "ذنوب": 3288,
      "كلمة": 3289,
      "##سد": 3290,
      "حيث": 3291,
      "وكان": 3292,
      "##يانا": 3293,
      "10": 3294,
      "الحك": 3295,
      "المنا": 3296,
      "##ظلم": 3297,
      "بعده": 3298,
      "##ماع": 3299,
      "##عمال": 3300,
      "عرش": 3301,
      "##ia": 3302,
      "##واء": 3303,
      "صوت": 3304,
      "##فاع": 3305,
      "مين": 3306,
      "فاع": 3307,
      "بخ": 3308,
      "جديدة": 3309,
      "تا": 3310,
      "عبر": 3311,
      "##تمع": 3312,
      "اسعد": 3313,
      "##on": 3314,
      "قروب": 3315,
      "##دى": 3316,
      "مز": 3317,
      "ليش": 3318,
      "بالع": 3319,
      "##حا": 3320,
      "مساء": 3321,
      "##ادة": 3322,
      "عارف": 3323,
      "ومد": 3324,
      "##ديك": 3325,
      "امنوا": 3326,
      "##ثل": 3327,
      "##سبة": 3328,
      "اقول": 3329,
      "##راب": 3330,
      "مض": 3331,
      "صلاة": 3332,
      "قط": 3333,
      "لقد": 3334,
      "واع": 3335,
      "دع": 3336,
      "تض": 3337,
      "اشوف": 3338,
      "##طين": 3339,
      "مال": 3340,
      "##وها": 3341,
      "التح": 3342,
      "والب": 3343,
      "سب": 3344,
      "تطبيق": 3345,
      "طريق": 3346,
      "نادي": 3347,
      "##بيه": 3348,
      "التغ": 3349,
      "نب": 3350,
      "تعالى": 3351,
      "نور": 3352,
      "عادي": 3353,
      "لنفس": 3354,
      "ضع": 3355,
      "##ومي": 3356,
      "##صة": 3357,
      "##از": 3358,
      "##كرم": 3359,
      "الحي": 3360,
      "##ساء": 3361,
      "البخاري": 3362,
      "##مهور": 3363,
      "احفظ": 3364,
      "المغ": 3365,
      "واجعل": 3366,
      "وخير": 3367,
      "الوح": 3368,
      "مبارك": 3369,
      "الرجال": 3370,
      "##معه": 3371,
      "##انة": 3372,
      "##خب": 3373,
      "خالد": 3374,
      "اجل": 3375,
      "توا": 3376,
      "##ورا": 3377,
      "##ابر": 3378,
      "##هما": 3379,
      "لس": 3380,
      "فيمن": 3381,
      "انهم": 3382,
      "حديث": 3383,
      "##اتب": 3384,
      "الشعب": 3385,
      "باذن": 3386,
      "حز": 3387,
      "##ولى": 3388,
      "كي": 3389,
      "شوف": 3390,
      "الواحد": 3391,
      "##نامج": 3392,
      "##ريح": 3393,
      "والمس": 3394,
      "##الت": 3395,
      "اشهد": 3396,
      "الرس": 3397,
      "عاجل": 3398,
      "نسالك": 3399,
      "وهي": 3400,
      "يام": 3401,
      "الشع": 3402,
      "##وث": 3403,
      "##ناس": 3404,
      "##زقا": 3405,
      "الاد": 3406,
      "علا": 3407,
      "بعيد": 3408,
      "عيد": 3409,
      "##افي": 3410,
      "##حن": 3411,
      "نق": 3412,
      "سر": 3413,
      "الكتاب": 3414,
      "##للا": 3415,
      "النوم": 3416,
      "العالمين": 3417,
      "##خد": 3418,
      "كثر": 3419,
      "وبعد": 3420,
      "##نم": 3421,
      "قطر": 3422,
      "##لني": 3423,
      "داع": 3424,
      "الاب": 3425,
      "السعادة": 3426,
      "علما": 3427,
      "##ابة": 3428,
      "مليون": 3429,
      "صف": 3430,
      "البشر": 3431,
      "دم": 3432,
      "ساعة": 3433,
      "هذي": 3434,
      "##يتي": 3435,
      "المنزل": 3436,
      "##بيل": 3437,
      "##دق": 3438,
      "##at": 3439,
      "##حل": 3440,
      "##سلام": 3441,
      "ريال": 3442,
      "ذا": 3443,
      "##am": 3444,
      "شف": 3445,
      "مافي": 3446,
      "الاخرة": 3447,
      "متى": 3448,
      "##ادم": 3449,
      "صو": 3450,
      "للش": 3451,
      "##كتور": 3452,
      "##غفار": 3453,
      "قنا": 3454,
      "11": 3455,
      "##لطان": 3456,
      "بشر": 3457,
      "##ولد": 3458,
      "رض": 3459,
      "##ضح": 3460,
      "##المي": 3461,
      "بالح": 3462,
      "بسبب": 3463,
      "##قاط": 3464,
      "رجل": 3465,
      "##فعل": 3466,
      "##روع": 3467,
      "##ريدة": 3468,
      "##ابت": 3469,
      "يسعد": 3470,
      "##داد": 3471,
      "جمال": 3472,
      "الرحمن": 3473,
      "ويا": 3474,
      "سم": 3475,
      "الوطن": 3476,
      "##سية": 3477,
      "شعور": 3478,
      "##سط": 3479,
      "للس": 3480,
      "فك": 3481,
      "كريم": 3482,
      "العفو": 3483,
      "##فى": 3484,
      "شو": 3485,
      "##افظ": 3486,
      "خاص": 3487,
      "اللا": 3488,
      "رغم": 3489,
      "واش": 3490,
      "العم": 3491,
      "اكت": 3492,
      "طول": 3493,
      "المو": 3494,
      "باي": 3495,
      "##ar": 3496,
      "##اير": 3497,
      "العام": 3498,
      "##زان": 3499,
      "##رفة": 3500,
      "خلاص": 3501,
      "##ملك": 3502,
      "طلع": 3503,
      "مشك": 3504,
      "قام": 3505,
      "واج": 3506,
      "لش": 3507,
      "امري": 3508,
      "العرب": 3509,
      "كانوا": 3510,
      "اجر": 3511,
      "##يبه": 3512,
      "الحساب": 3513,
      "ريا": 3514,
      "##طار": 3515,
      "##عث": 3516,
      "والق": 3517,
      "##خلي": 3518,
      "بحب": 3519,
      "فمن": 3520,
      "سهلا": 3521,
      "##اهر": 3522,
      "عظيم": 3523,
      "##st": 3524,
      "بو": 3525,
      "كفر": 3526,
      "موس": 3527,
      "##or": 3528,
      "##راي": 3529,
      "تنت": 3530,
      "اسال": 3531,
      "حض": 3532,
      "ايران": 3533,
      "##دين": 3534,
      "بالك": 3535,
      "عرشه": 3536,
      "##ريف": 3537,
      "##ركز": 3538,
      "اعط": 3539,
      "##عض": 3540,
      "رحمة": 3541,
      "كنا": 3542,
      "الجنه": 3543,
      "##اضي": 3544,
      "##خط": 3545,
      "وعد": 3546,
      "ماذا": 3547,
      "صالح": 3548,
      "##لاد": 3549,
      "كلماته": 3550,
      "##سف": 3551,
      "##وير": 3552,
      "اكتر": 3553,
      "ليست": 3554,
      "حلم": 3555,
      "ارد": 3556,
      "مفي": 3557,
      "العربية": 3558,
      "كاس": 3559,
      "جام": 3560,
      "كتاب": 3561,
      "فعلا": 3562,
      "الوحيد": 3563,
      "سوريا": 3564,
      "حا": 3565,
      "نافعا": 3566,
      "كتير": 3567,
      "##لكم": 3568,
      "اعد": 3569,
      "وعاف": 3570,
      "ماش": 3571,
      "##مين": 3572,
      "##يمان": 3573,
      "##واه": 3574,
      "انما": 3575,
      "سعيد": 3576,
      "حكم": 3577,
      "قت": 3578,
      "##نب": 3579,
      "الجميع": 3580,
      "ارض": 3581,
      "حبيب": 3582,
      "الاخرين": 3583,
      "صغير": 3584,
      "القيا": 3585,
      "##دو": 3586,
      "الكريم": 3587,
      "مرات": 3588,
      "##ضة": 3589,
      "لانه": 3590,
      "##ناك": 3591,
      "##زع": 3592,
      "##هير": 3593,
      "بالص": 3594,
      "##لبة": 3595,
      "##ودة": 3596,
      "##عاده": 3597,
      "##ريبا": 3598,
      "اين": 3599,
      "وث": 3600,
      "طال": 3601,
      "عمري": 3602,
      "اصحاب": 3603,
      "قاعد": 3604,
      "ومداد": 3605,
      "19": 3606,
      "وارزق": 3607,
      "##تاق": 3608,
      "##بري": 3609,
      "##ديت": 3610,
      "##حيم": 3611,
      "اخذ": 3612,
      "##هب": 3613,
      "وليس": 3614,
      "##وفيق": 3615,
      "##ريقة": 3616,
      "الاص": 3617,
      "##بيع": 3618,
      "والام": 3619,
      "العلم": 3620,
      "وزنة": 3621,
      "نعمة": 3622,
      "تذكر": 3623,
      "##شة": 3624,
      "##طق": 3625,
      "##سين": 3626,
      "والج": 3627,
      "عج": 3628,
      "بدا": 3629,
      "معي": 3630,
      "للق": 3631,
      "ورزقا": 3632,
      "##عين": 3633,
      "##لور": 3634,
      "##وما": 3635,
      "لعب": 3636,
      "استغفرالله": 3637,
      "الوط": 3638,
      "##واصل": 3639,
      "##ارية": 3640,
      "محتاج": 3641,
      "وعملا": 3642,
      "قدر": 3643,
      "احيانا": 3644,
      "حياة": 3645,
      "اصلا": 3646,
      "##وجه": 3647,
      "بيد": 3648,
      "رحمه": 3649,
      "##واج": 3650,
      "##راهيم": 3651,
      "##شد": 3652,
      "##يفة": 3653,
      "##ضيع": 3654,
      "رك": 3655,
      "والاخ": 3656,
      "##ضيق": 3657,
      "غدا": 3658,
      "##صب": 3659,
      "خال": 3660,
      "فار": 3661,
      "جاء": 3662,
      "دخل": 3663,
      "فريق": 3664,
      "انفس": 3665,
      "مهم": 3666,
      "حبك": 3667,
      "افت": 3668,
      "للدعم": 3669,
      "حر": 3670,
      "15": 3671,
      "##بيب": 3672,
      "##ويل": 3673,
      "##ed": 3674,
      "اهد": 3675,
      "##ايك": 3676,
      "##قتل": 3677,
      "بنفس": 3678,
      "سري": 3679,
      "صدق": 3680,
      "عنها": 3681,
      "ارزقني": 3682,
      "يريد": 3683,
      "##ميز": 3684,
      "الساعة": 3685,
      "اتمنى": 3686,
      "ومع": 3687,
      "الاشياء": 3688,
      "##لتي": 3689,
      "يستحق": 3690,
      "##ارع": 3691,
      "معاك": 3692,
      "سلام": 3693,
      "ند": 3694,
      "واق": 3695,
      "جي": 3696,
      "يبقى": 3697,
      "العين": 3698,
      "كذا": 3699,
      "سيرته": 3700,
      "ليت": 3701,
      "برا": 3702,
      "٢٠": 3703,
      "وير": 3704,
      "يكن": 3705,
      "ونعم": 3706,
      "يار": 3707,
      "##كثر": 3708,
      "المخ": 3709,
      "##ظهر": 3710,
      "الاف": 3711,
      "بالخير": 3712,
      "##ذهب": 3713,
      "الخلي": 3714,
      "وجود": 3715,
      "ولن": 3716,
      "هن": 3717,
      "##مني": 3718,
      "##وبة": 3719,
      "##وسف": 3720,
      "صعب": 3721,
      "##فال": 3722,
      "ايا": 3723,
      "سبب": 3724,
      "شيت": 3725,
      "##طاء": 3726,
      "واه": 3727,
      "برحم": 3728,
      "ليلة": 3729,
      "عالم": 3730,
      "شعب": 3731,
      "##عام": 3732,
      "وضع": 3733,
      "عمان": 3734,
      "ولد": 3735,
      "علش": 3736,
      "وبك": 3737,
      "عبادك": 3738,
      "تجد": 3739,
      "##وبي": 3740,
      "الشباب": 3741,
      "الفجر": 3742,
      "بالد": 3743,
      "بشكل": 3744,
      "##ربية": 3745,
      "جم": 3746,
      "##لايك": 3747,
      "ابراهيم": 3748,
      "خذ": 3749,
      "##طال": 3750,
      "فاغفر": 3751,
      "خي": 3752,
      "##فرج": 3753,
      "لز": 3754,
      "الدوري": 3755,
      "##داع": 3756,
      "خد": 3757,
      "وقد": 3758,
      "واحدة": 3759,
      "مباراة": 3760,
      "حظ": 3761,
      "فات": 3762,
      "راج": 3763,
      "فق": 3764,
      "##يين": 3765,
      "كام": 3766,
      "بلد": 3767,
      "سلمان": 3768,
      "##كو": 3769,
      "##حول": 3770,
      "احلى": 3771,
      "وعن": 3772,
      "فلي": 3773,
      "الفت": 3774,
      "اقت": 3775,
      "علشان": 3776,
      "سال": 3777,
      "الامر": 3778,
      "سوال": 3779,
      "ورب": 3780,
      "اليمن": 3781,
      "##وفق": 3782,
      "مار": 3783,
      "##ah": 3784,
      "كلنا": 3785,
      "اننا": 3786,
      "فرج": 3787,
      "وبا": 3788,
      "##قات": 3789,
      "يجب": 3790,
      "الاحت": 3791,
      "ورضا": 3792,
      "بالس": 3793,
      "للذ": 3794,
      "العراق": 3795,
      "##رون": 3796,
      "##قاب": 3797,
      "##ومه": 3798,
      "هلا": 3799,
      "لسان": 3800,
      "##شرح": 3801,
      "واد": 3802,
      "الكثير": 3803,
      "لين": 3804,
      "يعت": 3805,
      "قرب": 3806,
      "##ومن": 3807,
      "##لرو": 3808,
      "بب": 3809,
      "هدف": 3810,
      "عال": 3811,
      "المط": 3812,
      "للي": 3813,
      "مرا": 3814,
      "حرام": 3815,
      "##اكل": 3816,
      "##لمة": 3817,
      "نز": 3818,
      "الخروج": 3819,
      "##ريض": 3820,
      "##ارا": 3821,
      "##بات": 3822,
      "اشياء": 3823,
      "الطيب": 3824,
      "مخت": 3825,
      "دوري": 3826,
      "##نو": 3827,
      "قالوا": 3828,
      "يالله": 3829,
      "الجز": 3830,
      "الكه": 3831,
      "كنز": 3832,
      "العمل": 3833,
      "عنده": 3834,
      "احساس": 3835,
      "خرج": 3836,
      "##ريه": 3837,
      "شه": 3838,
      "اكون": 3839,
      "معه": 3840,
      "عشر": 3841,
      "الور": 3842,
      "برنامج": 3843,
      "الرو": 3844,
      "الرجل": 3845,
      "شفت": 3846,
      "ايها": 3847,
      "##ضب": 3848,
      "##ولت": 3849,
      "تاريخ": 3850,
      "دور": 3851,
      "تبقى": 3852,
      "اللہ": 3853,
      "##رير": 3854,
      "##ربة": 3855,
      "ارت": 3856,
      "كال": 3857,
      "##انون": 3858,
      "فانت": 3859,
      "اكتب": 3860,
      "نست": 3861,
      "خلف": 3862,
      "للمت": 3863,
      "##اعتك": 3864,
      "محب": 3865,
      "اسمه": 3866,
      "كلما": 3867,
      "الصح": 3868,
      "كدا": 3869,
      "بكلمات": 3870,
      "اجمع": 3871,
      "السجود": 3872,
      "مرض": 3873,
      "وبين": 3874,
      "فهم": 3875,
      "بالق": 3876,
      "##طقة": 3877,
      "##دينا": 3878,
      "فهو": 3879,
      "فما": 3880,
      "##ينا": 3881,
      "##طه": 3882,
      "النج": 3883,
      "##تمام": 3884,
      "العزيز": 3885,
      "##كيل": 3886,
      "##دت": 3887,
      "##ظن": 3888,
      "فيني": 3889,
      "##رار": 3890,
      "##فاق": 3891,
      "انس": 3892,
      "##مك": 3893,
      "مجلس": 3894,
      "عايز": 3895,
      "الحج": 3896,
      "محم": 3897,
      "سنه": 3898,
      "الشر": 3899,
      "مفيش": 3900,
      "بقي": 3901,
      "##باك": 3902,
      "منذ": 3903,
      "##الف": 3904,
      "##نس": 3905,
      "معنا": 3906,
      "حبيبي": 3907,
      "العيد": 3908,
      "الشيطان": 3909,
      "ويت": 3910,
      "مف": 3911,
      "الرحيم": 3912,
      "واغ": 3913,
      "##ميس": 3914,
      "##دنا": 3915,
      "##فور": 3916,
      "الحين": 3917,
      "##ظام": 3918,
      "الصالحات": 3919,
      "##لروح": 3920,
      "12": 3921,
      "بوك": 3922,
      "ثق": 3923,
      "امس": 3924,
      "##ودع": 3925,
      "##نوب": 3926,
      "##شل": 3927,
      "ويس": 3928,
      "احدا": 3929,
      "حاس": 3930,
      "زمان": 3931,
      "جمع": 3932,
      "حص": 3933,
      "##وضوع": 3934,
      "وقال": 3935,
      "لط": 3936,
      "بام": 3937,
      "غلط": 3938,
      "يدعو": 3939,
      "##واد": 3940,
      "اجعلنا": 3941,
      "##صدر": 3942,
      "##تكون": 3943,
      "عص": 3944,
      "ميت": 3945,
      "الحياه": 3946,
      "##لوك": 3947,
      "للنا": 3948,
      "##داف": 3949,
      "سهل": 3950,
      "##حر": 3951,
      "رجال": 3952,
      "ابواب": 3953,
      "بقى": 3954,
      "##es": 3955,
      "انش": 3956,
      "فاح": 3957,
      "البيت": 3958,
      "##اجة": 3959,
      "##لاف": 3960,
      "لماذا": 3961,
      "بلغ": 3962,
      "##فيد": 3963,
      "داخل": 3964,
      "للن": 3965,
      "موجود": 3966,
      "يسر": 3967,
      "##رجة": 3968,
      "تغير": 3969,
      "الامور": 3970,
      "ماهو": 3971,
      "للب": 3972,
      "اعظم": 3973,
      "بالج": 3974,
      "##قاء": 3975,
      "رضي": 3976,
      "انف": 3977,
      "##يدة": 3978,
      "وبارك": 3979,
      "##عيش": 3980,
      "##بره": 3981,
      "##وام": 3982,
      "الامير": 3983,
      "لص": 3984,
      "الثاني": 3985,
      "##كا": 3986,
      "المي": 3987,
      "طلب": 3988,
      "جميلة": 3989,
      "ودي": 3990,
      "فيما": 3991,
      "##ورهم": 3992,
      "الات": 3993,
      "دول": 3994,
      "وام": 3995,
      "##راح": 3996,
      "تدري": 3997,
      "##انيه": 3998,
      "لحد": 3999,
      "المنت": 4000,
      "ضحك": 4001,
      "##غفرة": 4002,
      "بالغ": 4003,
      "وتع": 4004,
      "زوج": 4005,
      "والغ": 4006,
      "التج": 4007,
      "الروح": 4008,
      "##تا": 4009,
      "فن": 4010,
      "##عوا": 4011,
      "بمن": 4012,
      "الاولى": 4013,
      "##بكي": 4014,
      "##اتها": 4015,
      "بنا": 4016,
      "الخاص": 4017,
      "باقي": 4018,
      "الامل": 4019,
      "سعودي": 4020,
      "الجديد": 4021,
      "##لمين": 4022,
      "القيامة": 4023,
      "ياتي": 4024,
      "##دون": 4025,
      "جعل": 4026,
      "سج": 4027,
      "الارها": 4028,
      "##قيقي": 4029,
      "##قيقه": 4030,
      "رحمتك": 4031,
      "يغفر": 4032,
      "ويب": 4033,
      "##جاة": 4034,
      "الاسب": 4035,
      "##قق": 4036,
      "الكبر": 4037,
      "بار": 4038,
      "حسنة": 4039,
      "##خدم": 4040,
      "صديق": 4041,
      "تكن": 4042,
      "البط": 4043,
      "الصبر": 4044,
      "##لقة": 4045,
      "دار": 4046,
      "##افه": 4047,
      "ماع": 4048,
      "تشوف": 4049,
      "##جاز": 4050,
      "حزن": 4051,
      "##شن": 4052,
      "جو": 4053,
      "##صور": 4054,
      "الجيش": 4055,
      "ويم": 4056,
      "فس": 4057,
      "جاي": 4058,
      "14": 4059,
      "##لاقي": 4060,
      "دام": 4061,
      "ارب": 4062,
      "##اعه": 4063,
      "دعوة": 4064,
      "الخط": 4065,
      "الموس": 4066,
      "ومش": 4067,
      "##كرك": 4068,
      "السيا": 4069,
      "##el": 4070,
      "يوسف": 4071,
      "عاش": 4072,
      "وزير": 4073,
      "##ثة": 4074,
      "امريك": 4075,
      "برد": 4076,
      "المر": 4077,
      "عنهم": 4078,
      "عافني": 4079,
      "##راغ": 4080,
      "عمران": 4081,
      "##لوس": 4082,
      "يقولون": 4083,
      "١٠": 4084,
      "لغ": 4085,
      "وعافني": 4086,
      "اسب": 4087,
      "فلس": 4088,
      "ضيف": 4089,
      "وظ": 4090,
      "الفيس": 4091,
      "المراة": 4092,
      "الاخر": 4093,
      "قناة": 4094,
      "كمان": 4095,
      "ذنوبنا": 4096,
      "روحي": 4097,
      "حفظ": 4098,
      "##ويس": 4099,
      "البر": 4100,
      "##لاه": 4101,
      "##باء": 4102,
      "تلك": 4103,
      "##هاد": 4104,
      "##انك": 4105,
      "al": 4106,
      "سو": 4107,
      "##لوق": 4108,
      "مدريد": 4109,
      "الشوق": 4110,
      "حمد": 4111,
      "فتح": 4112,
      "عدم": 4113,
      "##ليق": 4114,
      "خاط": 4115,
      "##برا": 4116,
      "العالمي": 4117,
      "##واجد": 4118,
      "جوا": 4119,
      "البحرين": 4120,
      "الجام": 4121,
      "بعدها": 4122,
      "وشر": 4123,
      "ماب": 4124,
      "داعش": 4125,
      "صاد": 4126,
      "المه": 4127,
      "بهم": 4128,
      "##غط": 4129,
      "##et": 4130,
      "##حدة": 4131,
      "سا": 4132,
      "##صح": 4133,
      "والف": 4134,
      "الشمس": 4135,
      "نع": 4136,
      "عس": 4137,
      "المق": 4138,
      "##اصيل": 4139,
      "سعد": 4140,
      "##راج": 4141,
      "##وبا": 4142,
      "نحب": 4143,
      "##واح": 4144,
      "انتم": 4145,
      "بجد": 4146,
      "وجهك": 4147,
      "الحلو": 4148,
      "واغفر": 4149,
      "ورد": 4150,
      "اكيد": 4151,
      "زع": 4152,
      "الصد": 4153,
      "##يع": 4154,
      "وجد": 4155,
      "صدري": 4156,
      "##كبر": 4157,
      "##ميم": 4158,
      "قريب": 4159,
      "ارج": 4160,
      "برش": 4161,
      "##جاه": 4162,
      "سواك": 4163,
      "البعض": 4164,
      "جنا": 4165,
      "##ابات": 4166,
      "تنا": 4167,
      "واللي": 4168,
      "##للح": 4169,
      "##عزيز": 4170,
      "مدينة": 4171,
      "اصبحنا": 4172,
      "16": 4173,
      "ادري": 4174,
      "دين": 4175,
      "فعل": 4176,
      "فتنة": 4177,
      "فينا": 4178,
      "##ابه": 4179,
      "فقال": 4180,
      "بف": 4181,
      "القص": 4182,
      "ينا": 4183,
      "النعم": 4184,
      "لحظة": 4185,
      "سعاد": 4186,
      "جمهور": 4187,
      "غفر": 4188,
      "##is": 4189,
      "##راءة": 4190,
      "قض": 4191,
      "تاني": 4192,
      "يرد": 4193,
      "رياض": 4194,
      "قاي": 4195,
      "خطا": 4196,
      "##بتسم": 4197,
      "العي": 4198,
      "اللح": 4199,
      "الذنوب": 4200,
      "##ارق": 4201,
      "استغفرك": 4202,
      "##شوف": 4203,
      "يحت": 4204,
      "##ظه": 4205,
      "17": 4206,
      "كس": 4207,
      "القيوم": 4208,
      "يلا": 4209,
      "بعي": 4210,
      "##يتها": 4211,
      "##امات": 4212,
      "وانتم": 4213,
      "يحفظ": 4214,
      "الامام": 4215,
      "وجع": 4216,
      "الوكيل": 4217,
      "ربه": 4218,
      "##جيب": 4219,
      "هب": 4220,
      "##ناب": 4221,
      "يتم": 4222,
      "وهذا": 4223,
      "جميعا": 4224,
      "لبنا": 4225,
      "وطن": 4226,
      "الدعو": 4227,
      "##يان": 4228,
      "الوطني": 4229,
      "##عية": 4230,
      "##كمل": 4231,
      "هما": 4232,
      "يحي": 4233,
      "##ثق": 4234,
      "برحمتك": 4235,
      "##مسك": 4236,
      "قلي": 4237,
      "##ضل": 4238,
      "زايد": 4239,
      "سيدنا": 4240,
      "##لما": 4241,
      "سوى": 4242,
      "مجرد": 4243,
      "دخ": 4244,
      "التاريخ": 4245,
      "ارزقنا": 4246,
      "##عى": 4247,
      "##فيق": 4248,
      "دى": 4249,
      "نخ": 4250,
      "النهار": 4251,
      "زين": 4252,
      "وعذاب": 4253,
      "th": 4254,
      "يدي": 4255,
      "##واع": 4256,
      "الخليج": 4257,
      "##ستر": 4258,
      "النور": 4259,
      "حما": 4260,
      "##طلع": 4261,
      "##زيد": 4262,
      "البلد": 4263,
      "وسوء": 4264,
      "وتب": 4265,
      "##لاك": 4266,
      "ذي": 4267,
      "المصري": 4268,
      "via": 4269,
      "سعادة": 4270,
      "للك": 4271,
      "فص": 4272,
      "##فني": 4273,
      "##ابعة": 4274,
      "نم": 4275,
      "العد": 4276,
      "مبا": 4277,
      "النها": 4278,
      "تريد": 4279,
      "تعت": 4280,
      "اصدق": 4281,
      "فاذا": 4282,
      "برض": 4283,
      "كا": 4284,
      "قلبه": 4285,
      "##شه": 4286,
      "##فين": 4287,
      "المشك": 4288,
      "سك": 4289,
      "الامن": 4290,
      "ولج": 4291,
      "حسابك": 4292,
      "بري": 4293,
      "وسط": 4294,
      "حسب": 4295,
      "##ولها": 4296,
      "الرييس": 4297,
      "##ذة": 4298,
      "الفريق": 4299,
      "ولله": 4300,
      "اعم": 4301,
      "حل": 4302,
      "اور": 4303,
      "##قلب": 4304,
      "قالت": 4305,
      "وحسن": 4306,
      "زاد": 4307,
      "نشرت": 4308,
      "##حسن": 4309,
      "الاغ": 4310,
      "اخرى": 4311,
      "##عار": 4312,
      "##ضحك": 4313,
      "##مات": 4314,
      "زيادة": 4315,
      "##هداء": 4316,
      "والحزن": 4317,
      "الكل": 4318,
      "وارحمني": 4319,
      "شباب": 4320,
      "اسيا": 4321,
      "القد": 4322,
      "##هاب": 4323,
      "فين": 4324,
      "للناس": 4325,
      "القب": 4326,
      "خص": 4327,
      "المومنون": 4328,
      "سبيل": 4329,
      "فهد": 4330,
      "ولق": 4331,
      "الحكم": 4332,
      "امل": 4333,
      "الجميل": 4334,
      "الطريق": 4335,
      "##فروض": 4336,
      "خبر": 4337,
      "طا": 4338,
      "##تكم": 4339,
      "والصلاة": 4340,
      "يحبك": 4341,
      "اقسم": 4342,
      "##ولات": 4343,
      "##شى": 4344,
      "##غب": 4345,
      "بالف": 4346,
      "اختي": 4347,
      "رقم": 4348,
      "المهم": 4349,
      "تصبح": 4350,
      "فيهم": 4351,
      "افتح": 4352,
      "بني": 4353,
      "اساس": 4354,
      "قران": 4355,
      "الاعلى": 4356,
      "تبي": 4357,
      "##يده": 4358,
      "يوجد": 4359,
      "محت": 4360,
      "للاسف": 4361,
      "##بحث": 4362,
      "اريد": 4363,
      "ورحم": 4364,
      "##ظار": 4365,
      "عندنا": 4366,
      "##راض": 4367,
      "##امح": 4368,
      "مكت": 4369,
      "##كذا": 4370,
      "بير": 4371,
      "##ing": 4372,
      "در": 4373,
      "##ياس": 4374,
      "ضيق": 4375,
      "بسي": 4376,
      "كتب": 4377,
      "النساء": 4378,
      "ينفع": 4379,
      "وارزقني": 4380,
      "انته": 4381,
      "##ونها": 4382,
      "##لمك": 4383,
      "تلق": 4384,
      "تعيش": 4385,
      "فاج": 4386,
      "عبدالعزيز": 4387,
      "رسالة": 4388,
      "##ناهم": 4389,
      "30": 4390,
      "##دري": 4391,
      "##انب": 4392,
      "المسجد": 4393,
      "وبرك": 4394,
      "##ومنين": 4395,
      "برشلون": 4396,
      "##ونس": 4397,
      "##غر": 4398,
      "قدام": 4399,
      "نهاية": 4400,
      "##خرج": 4401,
      "سنوات": 4402,
      "ذنب": 4403,
      "يبي": 4404,
      "##زاب": 4405,
      "##صال": 4406,
      "##ادل": 4407,
      "مرح": 4408,
      "البحر": 4409,
      "##بعض": 4410,
      "خس": 4411,
      "الصف": 4412,
      "سنين": 4413,
      "الشه": 4414,
      "خش": 4415,
      "العليم": 4416,
      "متقبل": 4417,
      "بقدر": 4418,
      "العق": 4419,
      "كب": 4420,
      "18": 4421,
      "##طفال": 4422,
      "##ذك": 4423,
      "صدقة": 4424,
      "##جير": 4425,
      "##مير": 4426,
      "##الدي": 4427,
      "قليل": 4428,
      "جهنم": 4429,
      "تركيا": 4430,
      "مريم": 4431,
      "##راحة": 4432,
      "##ابقة": 4433,
      "##il": 4434,
      "الكافر": 4435,
      "يكفي": 4436,
      "والخ": 4437,
      "منكم": 4438,
      "##سيح": 4439,
      "باك": 4440,
      "تحس": 4441,
      "##وخ": 4442,
      "##ورنا": 4443,
      "لقاء": 4444,
      "تقبل": 4445,
      "لزيادة": 4446,
      "المب": 4447,
      "اراد": 4448,
      "والجب": 4449,
      "السم": 4450,
      "العب": 4451,
      "الموضوع": 4452,
      "##اكد": 4453,
      "الحرم": 4454,
      "دعم": 4455,
      "الليلة": 4456,
      "يعمل": 4457,
      "القط": 4458,
      "##بيعي": 4459,
      "يقوم": 4460,
      "الكسل": 4461,
      "##ركات": 4462,
      "يجي": 4463,
      "ربا": 4464,
      "بث": 4465,
      "عيونك": 4466,
      "معرف": 4467,
      "يذكر": 4468,
      "المساء": 4469,
      "التامة": 4470,
      "صن": 4471,
      "الدولة": 4472,
      "لمد": 4473,
      "ذكرك": 4474,
      "##ab": 4475,
      "عذابك": 4476,
      "##راط": 4477,
      "سعود": 4478,
      "دولة": 4479,
      "اخي": 4480,
      "سريع": 4481,
      "والاخرة": 4482,
      "الكهف": 4483,
      "اوي": 4484,
      "##ذين": 4485,
      "تمر": 4486,
      "##ثرة": 4487,
      "ني": 4488,
      "عليا": 4489,
      "##صره": 4490,
      "رفع": 4491,
      "التص": 4492,
      "تابع": 4493,
      "دخول": 4494,
      "فه": 4495,
      "متابعينك": 4496,
      "اسمع": 4497,
      "فش": 4498,
      "صوتك": 4499,
      "عف": 4500,
      "الجمي": 4501,
      "ليا": 4502,
      "##حى": 4503,
      "اية": 4504,
      "عفو": 4505,
      "الدخول": 4506,
      "##ورك": 4507,
      "الفوز": 4508,
      "مبار": 4509,
      "حط": 4510,
      "السنة": 4511,
      "هوا": 4512,
      "يحدث": 4513,
      "##اطر": 4514,
      "والسلام": 4515,
      "بداية": 4516,
      "سوف": 4517,
      "عسى": 4518,
      "يجعل": 4519,
      "##عوض": 4520,
      "##اكم": 4521,
      "شوي": 4522,
      "##اده": 4523,
      "بالش": 4524,
      "الاث": 4525,
      "والكسل": 4526,
      "التف": 4527,
      "الابت": 4528,
      "دايم": 4529,
      "احدهم": 4530,
      "##حس": 4531,
      "بعم": 4532,
      "وبحمدك": 4533,
      "ترد": 4534,
      "لنفسه": 4535,
      "##20": 4536,
      "الصورة": 4537,
      "##اتهم": 4538,
      "بتاع": 4539,
      "حلوه": 4540,
      "##قوا": 4541,
      "##حبة": 4542,
      "حقيقة": 4543,
      "غزة": 4544,
      "لسه": 4545,
      "25": 4546,
      "اقد": 4547,
      "اليها": 4548,
      "الشكر": 4549,
      "العن": 4550,
      "عاق": 4551,
      "مالك": 4552,
      "##ديل": 4553,
      "بوا": 4554,
      "الالم": 4555,
      "والبخل": 4556,
      "طاعتك": 4557,
      "للف": 4558,
      "وزارة": 4559,
      "الزمن": 4560,
      "##وهم": 4561,
      "##انت": 4562,
      "توف": 4563,
      "عيوني": 4564,
      "اخبار": 4565,
      "##ميد": 4566,
      "طبعا": 4567,
      "##ربه": 4568,
      "السوري": 4569,
      "فكرة": 4570,
      "##ريده": 4571,
      "ورس": 4572,
      "ياخذ": 4573,
      "يحتاج": 4574,
      "اعمل": 4575,
      "دق": 4576,
      "اللاعب": 4577,
      "السر": 4578,
      "السيسي": 4579,
      "منزل": 4580,
      "سق": 4581,
      "100": 4582,
      "الجو": 4583,
      "##قيه": 4584,
      "غيا": 4585,
      "المملك": 4586,
      "يسمع": 4587,
      "يهم": 4588,
      "اشخاص": 4589,
      "الصبح": 4590,
      "الصمت": 4591,
      "شركة": 4592,
      "فاي": 4593,
      "عرض": 4594,
      "يشعر": 4595,
      "##ic": 4596,
      "ايش": 4597,
      "سخط": 4598,
      "فكر": 4599,
      "تعال": 4600,
      "سوء": 4601,
      "##خة": 4602,
      "##انيا": 4603,
      "والجبن": 4604,
      "رسم": 4605,
      "##هور": 4606,
      "وفا": 4607,
      "##بيا": 4608,
      "العافية": 4609,
      "دينا": 4610,
      "##شا": 4611,
      "##ابل": 4612,
      "##احة": 4613,
      "حلب": 4614,
      "##ذاكر": 4615,
      "##یں": 4616,
      "تحتاج": 4617,
      "##اهرة": 4618,
      "احلام": 4619,
      "##سامة": 4620,
      "بكره": 4621,
      "الاحزاب": 4622,
      "قرار": 4623,
      "قصة": 4624,
      "الهي": 4625,
      "ثاني": 4626,
      "##هادة": 4627,
      "##صير": 4628,
      "الاعلام": 4629,
      "##باس": 4630,
      "لاب": 4631,
      "تام": 4632,
      "##زال": 4633,
      "مالي": 4634,
      "ساعات": 4635,
      "ومت": 4636,
      "##قامة": 4637,
      "##لہ": 4638,
      "##جيل": 4639,
      "الحر": 4640,
      "مدري": 4641,
      "يموت": 4642,
      "##فرق": 4643,
      "اهله": 4644,
      "حتي": 4645,
      "خمس": 4646,
      "الفرح": 4647,
      "بارك": 4648,
      "الحد": 4649,
      "حلوة": 4650,
      "صباحكم": 4651,
      "الوز": 4652,
      "ادارة": 4653,
      "طف": 4654,
      "البد": 4655,
      "##لتك": 4656,
      "##باط": 4657,
      "ايضا": 4658,
      "ونحن": 4659,
      "كفروا": 4660,
      "##عات": 4661,
      "التامات": 4662,
      "وو": 4663,
      "##مالك": 4664,
      "اذكر": 4665,
      "موقع": 4666,
      "##حط": 4667,
      "البنت": 4668,
      "##id": 4669,
      "راض": 4670,
      "نن": 4671,
      "##اركة": 4672,
      "درا": 4673,
      "سما": 4674,
      "13": 4675,
      "##وتي": 4676,
      "اقل": 4677,
      "عيون": 4678,
      "##تما": 4679,
      "سيا": 4680,
      "انام": 4681,
      "فرق": 4682,
      "خلص": 4683,
      "##تماع": 4684,
      "الهد": 4685,
      "ابد": 4686,
      "ابعد": 4687,
      "##روس": 4688,
      "تغريد": 4689,
      "##ارد": 4690,
      "وصل": 4691,
      "##افات": 4692,
      "للص": 4693,
      "اجمعين": 4694,
      "##ابي": 4695,
      "يصل": 4696,
      "تعد": 4697,
      "التس": 4698,
      "##رسة": 4699,
      "اصلح": 4700,
      "الايمان": 4701,
      "راحة": 4702,
      "لانك": 4703,
      "بالي": 4704,
      "الدرا": 4705,
      "##ara": 4706,
      "لبنان": 4707,
      "الكون": 4708,
      "الفرق": 4709,
      "##يتم": 4710,
      "##قبال": 4711,
      "##ياك": 4712,
      "الاخوان": 4713,
      "اسباب": 4714,
      "سخطك": 4715,
      "سلطان": 4716,
      "امير": 4717,
      "الجمعه": 4718,
      "ابتسم": 4719,
      "اقرب": 4720,
      "استر": 4721,
      "##سال": 4722,
      "لست": 4723,
      "اضل": 4724,
      "بحمد": 4725,
      "النف": 4726,
      "كلهم": 4727,
      "##ay": 4728,
      "##ظات": 4729,
      "##راقي": 4730,
      "باع": 4731,
      "شغ": 4732,
      "يفهم": 4733,
      "خلقك": 4734,
      "وجميع": 4735,
      "##ولين": 4736,
      "وانتي": 4737,
      "##فن": 4738,
      "القاد": 4739,
      "##نيت": 4740,
      "رضيت": 4741,
      "السعوديه": 4742,
      "وذ": 4743,
      "طوي": 4744,
      "ممت": 4745,
      "والعجز": 4746,
      "وحدك": 4747,
      "##اجر": 4748,
      "اعمال": 4749,
      "رزق": 4750,
      "كره": 4751,
      "الخلق": 4752,
      "##وده": 4753,
      "قلبا": 4754,
      "يلت": 4755,
      "تبعث": 4756,
      "هات": 4757,
      "اقوى": 4758,
      "غيره": 4759,
      "##الث": 4760,
      "تخرج": 4761,
      "##تش": 4762,
      "كلا": 4763,
      "هكذا": 4764,
      "##انى": 4765,
      "الاي": 4766,
      "##ضور": 4767,
      "يكتب": 4768,
      "الظن": 4769,
      "الجمال": 4770,
      "القدر": 4771,
      "لااله": 4772,
      "كلامه": 4773,
      "قوم": 4774,
      "معنى": 4775,
      "بغير": 4776,
      "##راييل": 4777,
      "الموسم": 4778,
      "تي": 4779,
      "##جن": 4780,
      "مبت": 4781,
      "##فاف": 4782,
      "ساعه": 4783,
      "كبر": 4784,
      "مفت": 4785,
      "##شفى": 4786,
      "عهد": 4787,
      "##as": 4788,
      "البنات": 4789,
      "نصي": 4790,
      "الامريك": 4791,
      "صبر": 4792,
      "وبي": 4793,
      "##لمه": 4794,
      "##ستغفر": 4795,
      "كلمات": 4796,
      "النادي": 4797,
      "الماضي": 4798,
      "فول": 4799,
      "##ھم": 4800,
      "##فير": 4801,
      "لاحد": 4802,
      "##عدك": 4803,
      "يعط": 4804,
      "اسبوع": 4805,
      "اهدني": 4806,
      "##طب": 4807,
      "الخميس": 4808,
      "وحش": 4809,
      "صدي": 4810,
      "##جابة": 4811,
      "السوال": 4812,
      "حدث": 4813,
      "##واجدين": 4814,
      "الاحد": 4815,
      "انى": 4816,
      "ادم": 4817,
      "دبي": 4818,
      "مختلف": 4819,
      "##شرة": 4820,
      "##للق": 4821,
      "الحاج": 4822,
      "كامل": 4823,
      "صلوا": 4824,
      "ربهم": 4825,
      "يعم": 4826,
      "طالب": 4827,
      "##لرضا": 4828,
      "##وظ": 4829,
      "والث": 4830,
      "رجع": 4831,
      "الحديث": 4832,
      "وعملوا": 4833,
      "الحسن": 4834,
      "##كريات": 4835,
      "##صول": 4836,
      "##وغ": 4837,
      "##ظاهر": 4838,
      "المك": 4839,
      "الدم": 4840,
      "##واني": 4841,
      "المال": 4842,
      "فانه": 4843,
      "##ياد": 4844,
      "##صه": 4845,
      "ميسي": 4846,
      "##رجات": 4847,
      "##ابق": 4848,
      "فلسطين": 4849,
      "يرض": 4850,
      "ويسر": 4851,
      "جعلته": 4852,
      "حج": 4853,
      "05": 4854,
      "التعليم": 4855,
      "##ديدة": 4856,
      "هولاء": 4857,
      "اهزم": 4858,
      "خرجنا": 4859,
      "ولات": 4860,
      "الرزق": 4861,
      "##ظل": 4862,
      "وغلبة": 4863,
      "##فون": 4864,
      "##طور": 4865,
      "##لاوة": 4866,
      "خوف": 4867,
      "##راوي": 4868,
      "ذات": 4869,
      "فخ": 4870,
      "اللق": 4871,
      "للجميع": 4872,
      "ضي": 4873,
      "معاه": 4874,
      "اظلم": 4875,
      "يطلع": 4876,
      "##فهم": 4877,
      "جا": 4878,
      "وتح": 4879,
      "الهدى": 4880,
      "وبسم": 4881,
      "##يدك": 4882,
      "كلمه": 4883,
      "##حقق": 4884,
      "ربما": 4885,
      "##يز": 4886,
      "اتح": 4887,
      "ولقد": 4888,
      "##ثى": 4889,
      "الرضا": 4890,
      "##عك": 4891,
      "البال": 4892,
      "عبدك": 4893,
      "جيت": 4894,
      "المطر": 4895,
      "ترجع": 4896,
      "##شك": 4897,
      "البق": 4898,
      "والط": 4899,
      "24": 4900,
      "يمن": 4901,
      "الاشخاص": 4902,
      "##قنا": 4903,
      "الدعوة": 4904,
      "يعود": 4905,
      "##جبني": 4906,
      "##وين": 4907,
      "٢٠١": 4908,
      "امه": 4909,
      "الارب": 4910,
      "يبارك": 4911,
      "ترت": 4912,
      "##ol": 4913,
      "عزيز": 4914,
      "##لمت": 4915,
      "امريكا": 4916,
      "##والي": 4917,
      "استودع": 4918,
      "الورد": 4919,
      "التق": 4920,
      "##هوة": 4921,
      "##ادث": 4922,
      "نط": 4923,
      "شا": 4924,
      "نظر": 4925,
      "الدكتور": 4926,
      "تما": 4927,
      "##وول": 4928,
      "الدولي": 4929,
      "اشتقت": 4930,
      "المفروض": 4931,
      "##ثبت": 4932,
      "تقدر": 4933,
      "خارج": 4934,
      "الكبير": 4935,
      "الحوث": 4936,
      "وتن": 4937,
      "عمرك": 4938,
      "##الات": 4939,
      "اعني": 4940,
      "ياح": 4941,
      "شنو": 4942,
      "قلوبهم": 4943,
      "ابطال": 4944,
      "عبادتك": 4945,
      "st": 4946,
      "##لحة": 4947,
      "للط": 4948,
      "ملا": 4949,
      "شيخ": 4950,
      "##ربك": 4951,
      "امك": 4952,
      "قادر": 4953,
      "النص": 4954,
      "وغير": 4955,
      "##بول": 4956,
      "##لاقات": 4957,
      "تاخذ": 4958,
      "للو": 4959,
      "##ظمة": 4960,
      "ولجنا": 4961,
      "قريبا": 4962,
      "قني": 4963,
      "##دافع": 4964,
      "بسر": 4965,
      "##جلي": 4966,
      "القمر": 4967,
      "##جعلك": 4968,
      "نوع": 4969,
      "##طل": 4970,
      "##ورز": 4971,
      "##جح": 4972,
      "بيب": 4973,
      "عض": 4974,
      "##الق": 4975,
      "الاحياء": 4976,
      "بحي": 4977,
      "يخت": 4978,
      "تعب": 4979,
      "للخ": 4980,
      "عاوز": 4981,
      "انو": 4982,
      "اوليك": 4983,
      "الجزا": 4984,
      "بنات": 4985,
      "##ادرة": 4986,
      "المز": 4987,
      "##سات": 4988,
      "##راحه": 4989,
      "شاني": 4990,
      "##ركه": 4991,
      "مثلا": 4992,
      "يسال": 4993,
      "الخي": 4994,
      "جامعة": 4995,
      "اعذ": 4996,
      "المومنين": 4997,
      "يصير": 4998,
      "شكر": 4999,
      "##جار": 5000,
      "البا": 5001,
      "##اتكم": 5002,
      "##om": 5003,
      "##جعله": 5004,
      "##وو": 5005,
      "الداخ": 5006,
      "##ac": 5007,
      "يدخل": 5008,
      "الصالحين": 5009,
      "عربي": 5010,
      "السميع": 5011,
      "الرسول": 5012,
      "ياخي": 5013,
      "حبا": 5014,
      "##ميه": 5015,
      "##لايكة": 5016,
      "حاليا": 5017,
      "##وقت": 5018,
      "##دد": 5019,
      "##لامة": 5020,
      "##وون": 5021,
      "##دوس": 5022,
      "شم": 5023,
      "ابتسام": 5024,
      "الاعت": 5025,
      "وتس": 5026,
      "##قدير": 5027,
      "##بياء": 5028,
      "الاستغفار": 5029,
      "حسين": 5030,
      "##قاش": 5031,
      "عقد": 5032,
      "##رص": 5033,
      "معهم": 5034,
      "حياتنا": 5035,
      "اصبحت": 5036,
      "المملكة": 5037,
      "انق": 5038,
      "بينهما": 5039,
      "تخت": 5040,
      "لكي": 5041,
      "اى": 5042,
      "بات": 5043,
      "غالي": 5044,
      "الثلاث": 5045,
      "اعين": 5046,
      "in": 5047,
      "فاك": 5048,
      "##تاح": 5049,
      "واصبح": 5050,
      "واهد": 5051,
      "شرف": 5052,
      "شعر": 5053,
      "26": 5054,
      "##ap": 5055,
      "الغيب": 5056,
      "##لسل": 5057,
      "##فكير": 5058,
      "مشروع": 5059,
      "فاهم": 5060,
      "الارد": 5061,
      "كدة": 5062,
      "يومي": 5063,
      "##نتين": 5064,
      "##روق": 5065,
      "اﻟ": 5066,
      "يات": 5067,
      "برج": 5068,
      "حملة": 5069,
      "القدم": 5070,
      "لغير": 5071,
      "نوا": 5072,
      "##اوي": 5073,
      "المباراة": 5074,
      "العقل": 5075,
      "لبس": 5076,
      "اجعلني": 5077,
      "##بيك": 5078,
      "##قام": 5079,
      "استط": 5080,
      "لدي": 5081,
      "##رر": 5082,
      "##re": 5083,
      "مريض": 5084,
      "##غا": 5085,
      "عيب": 5086,
      "قيم": 5087,
      "##عاون": 5088,
      "نه": 5089,
      "النعيم": 5090,
      "##ريت": 5091,
      "العلي": 5092,
      "مزاج": 5093,
      "ضمن": 5094,
      "حرف": 5095,
      "##لرد": 5096,
      "##قطة": 5097,
      "عبار": 5098,
      "##ذل": 5099,
      "##مار": 5100,
      "##داء": 5101,
      "##صلي": 5102,
      "يوفق": 5103,
      "جزء": 5104,
      "بز": 5105,
      "وقل": 5106,
      "عمره": 5107,
      "عيش": 5108,
      "راب": 5109,
      "السود": 5110,
      "نصف": 5111,
      "##ot": 5112,
      "التن": 5113,
      "العلا": 5114,
      "تاتي": 5115,
      "المجتمع": 5116,
      "التد": 5117,
      "وفق": 5118,
      "##غيث": 5119,
      "تولي": 5120,
      "مشاعر": 5121,
      "##لبس": 5122,
      "رواه": 5123,
      "فاعف": 5124,
      "تعم": 5125,
      "واسالك": 5126,
      "صبح": 5127,
      "##يفون": 5128,
      "محدش": 5129,
      "جاب": 5130,
      "يلعب": 5131,
      "تسال": 5132,
      "يشوف": 5133,
      "##يها": 5134,
      "يشاء": 5135,
      "مستحيل": 5136,
      "بفض": 5137,
      "الراحم": 5138,
      "القادم": 5139,
      "السوء": 5140,
      "وتت": 5141,
      "ماشاء": 5142,
      "قيمة": 5143,
      "العبد": 5144,
      "برو": 5145,
      "المدينة": 5146,
      "##مى": 5147,
      "وقلب": 5148,
      "تعود": 5149,
      "امنا": 5150,
      "##ايية": 5151,
      "جب": 5152,
      "روس": 5153,
      "مغرد": 5154,
      "مركز": 5155,
      "##لتها": 5156,
      "الحقيقي": 5157,
      "اثناء": 5158,
      "حصل": 5159,
      "بالام": 5160,
      "فوز": 5161,
      "الترك": 5162,
      "ياك": 5163,
      "اشترك": 5164,
      "##شيء": 5165,
      "ثلاثة": 5166,
      "حزب": 5167,
      "ولما": 5168,
      "اخوان": 5169,
      "ليك": 5170,
      "##برة": 5171,
      "اخاف": 5172,
      "قيل": 5173,
      "ترضى": 5174,
      "والاقامة": 5175,
      "ابناء": 5176,
      "##صبح": 5177,
      "وعند": 5178,
      "شاف": 5179,
      "عل": 5180,
      "السموات": 5181,
      "صلا": 5182,
      "##قيل": 5183,
      "تمت": 5184,
      "تنام": 5185,
      "يحيي": 5186,
      "ناق": 5187,
      "حالة": 5188,
      "ذاك": 5189,
      "فلن": 5190,
      "والان": 5191,
      "انني": 5192,
      "النظر": 5193,
      "##ويا": 5194,
      "اسوا": 5195,
      "طفل": 5196,
      "الصغير": 5197,
      "امني": 5198,
      "##ساد": 5199,
      "##حبك": 5200,
      "يرجع": 5201,
      "##تق": 5202,
      "بقا": 5203,
      "##وقي": 5204,
      "يضر": 5205,
      "عاص": 5206,
      "واضح": 5207,
      "جارية": 5208,
      "اكره": 5209,
      "يملك": 5210,
      "شوية": 5211,
      "الراحمين": 5212,
      "##واك": 5213,
      "22": 5214,
      "##افظة": 5215,
      "##جال": 5216,
      "جنات": 5217,
      "##هاء": 5218,
      "##زوج": 5219,
      "نك": 5220,
      "زمن": 5221,
      "الحجر": 5222,
      "اقدر": 5223,
      "لف": 5224,
      "##لسة": 5225,
      "##غرب": 5226,
      "##جعلها": 5227,
      "النظام": 5228,
      "##عان": 5229,
      "##رات": 5230,
      "##اسي": 5231,
      "النجاح": 5232,
      "تشعر": 5233,
      "تحم": 5234,
      "اثر": 5235,
      "حنا": 5236,
      "2016": 5237,
      "باسم": 5238,
      "جميلا": 5239,
      "الحقيقة": 5240,
      "هاي": 5241,
      "##ندي": 5242,
      "##خه": 5243,
      "الملا": 5244,
      "مقا": 5245,
      "شوق": 5246,
      "يقدر": 5247,
      "كلي": 5248,
      "عرفت": 5249,
      "ﻣﻦ": 5250,
      "##عبد": 5251,
      "##غى": 5252,
      "غال": 5253,
      "##ارت": 5254,
      "فاس": 5255,
      "احتاج": 5256,
      "الفراغ": 5257,
      "وست": 5258,
      "اشد": 5259,
      "الرد": 5260,
      "بكم": 5261,
      "يعد": 5262,
      "اولا": 5263,
      "هموم": 5264,
      "الاخلاق": 5265,
      "بالحق": 5266,
      "##وكل": 5267,
      "عايش": 5268,
      "##اخر": 5269,
      "قتل": 5270,
      "عافيتك": 5271,
      "وانصر": 5272,
      "صلاح": 5273,
      "##ve": 5274,
      "اكرم": 5275,
      "مشكلة": 5276,
      "##ناسبة": 5277,
      "اخلاق": 5278,
      "بقلب": 5279,
      "كري": 5280,
      "##بض": 5281,
      "##يح": 5282,
      "00": 5283,
      "ناصر": 5284,
      "انفسهم": 5285,
      "نظام": 5286,
      "صبا": 5287,
      "الاق": 5288,
      "##الع": 5289,
      "كبيرة": 5290,
      "يرحمه": 5291,
      "##خلص": 5292,
      "ملت": 5293,
      "##ضى": 5294,
      "موقف": 5295,
      "li": 5296,
      "##ذار": 5297,
      "##وبر": 5298,
      "يمر": 5299,
      "طريقة": 5300,
      "موض": 5301,
      "##هام": 5302,
      "##ﻨﺎ": 5303,
      "##قية": 5304,
      "##ثال": 5305,
      "ظن": 5306,
      "يفت": 5307,
      "وبالا": 5308,
      "الزمالك": 5309,
      "ذكرى": 5310,
      "تستطيع": 5311,
      "قدم": 5312,
      "فترة": 5313,
      "##موعة": 5314,
      "##قيم": 5315,
      "##جوم": 5316,
      "الاخت": 5317,
      "الامت": 5318,
      "##بقى": 5319,
      "صرت": 5320,
      "تسلم": 5321,
      "قمة": 5322,
      "المشاعر": 5323,
      "رضا": 5324,
      "دنيا": 5325,
      "كذلك": 5326,
      "خاطري": 5327,
      "##رفض": 5328,
      "تحمل": 5329,
      "##روض": 5330,
      "the": 5331,
      "وشق": 5332,
      "##ووك": 5333,
      "200": 5334,
      "السن": 5335,
      "برشلونة": 5336,
      "##ورى": 5337,
      "يعيش": 5338,
      "الاطفال": 5339,
      "يجد": 5340,
      "ياخ": 5341,
      "ظهر": 5342,
      "##ولف": 5343,
      "التط": 5344,
      "الاسراء": 5345,
      "اسر": 5346,
      "##هن": 5347,
      "##ونة": 5348,
      "خل": 5349,
      "ارس": 5350,
      "دما": 5351,
      "الاعمال": 5352,
      "حاول": 5353,
      "اغلى": 5354,
      "غريب": 5355,
      "قسم": 5356,
      "##اين": 5357,
      "كنتم": 5358,
      "لاني": 5359,
      "رص": 5360,
      "اسراييل": 5361,
      "تحرم": 5362,
      "##هاز": 5363,
      "##معنا": 5364,
      "##لالك": 5365,
      "القايم": 5366,
      "نوم": 5367,
      "##٠٠": 5368,
      "خالص": 5369,
      "##اتل": 5370,
      "##راد": 5371,
      "لانها": 5372,
      "تقدم": 5373,
      "you": 5374,
      "لاج": 5375,
      "الوض": 5376,
      "السعاده": 5377,
      "فيصل": 5378,
      "##فنا": 5379,
      "جدة": 5380,
      "ولس": 5381,
      "وقهر": 5382,
      "البعد": 5383,
      "الاط": 5384,
      "##وته": 5385,
      "اسمك": 5386,
      "رم": 5387,
      "عمي": 5388,
      "ونا": 5389,
      "الاعراف": 5390,
      "اصعب": 5391,
      "يخاف": 5392,
      "##شره": 5393,
      "جرح": 5394,
      "##ايع": 5395,
      "نعمتك": 5396,
      "انواع": 5397,
      "هادي": 5398,
      "##ساس": 5399,
      "يرج": 5400,
      "نبض": 5401,
      "مكة": 5402,
      "سبحانه": 5403,
      "نوح": 5404,
      "بتح": 5405,
      "##افيه": 5406,
      "##الس": 5407,
      "ياع": 5408,
      "استش": 5409,
      "##رجع": 5410,
      "تحزن": 5411,
      "وصلت": 5412,
      "الشعور": 5413,
      "كون": 5414,
      "لاع": 5415,
      "حقق": 5416,
      "ورج": 5417,
      "##فذ": 5418,
      "يلد": 5419,
      "بطل": 5420,
      "نصيب": 5421,
      "طيبة": 5422,
      "##وبه": 5423,
      "سجد": 5424,
      "ويح": 5425,
      "27": 5426,
      "##وجود": 5427,
      "والموم": 5428,
      "يجيب": 5429,
      "يصبح": 5430,
      "امت": 5431,
      "بينهم": 5432,
      "##الا": 5433,
      "ازاي": 5434,
      "بفضلك": 5435,
      "to": 5436,
      "##ھا": 5437,
      "وجهي": 5438,
      "تنس": 5439,
      "والحمدلله": 5440,
      "صنع": 5441,
      "طرفة": 5442,
      "هز": 5443,
      "يقال": 5444,
      "لسانك": 5445,
      "وشك": 5446,
      "##فلة": 5447,
      "قاب": 5448,
      "يولد": 5449,
      "بذ": 5450,
      "همي": 5451,
      "جس": 5452,
      "بمع": 5453,
      "##ريقه": 5454,
      "التوفيق": 5455,
      "##خابات": 5456,
      "محا": 5457,
      "##اث": 5458,
      "الفردوس": 5459,
      "يقت": 5460,
      "جنة": 5461,
      "ايق": 5462,
      "الشت": 5463,
      "ويقول": 5464,
      "لام": 5465,
      "##ضن": 5466,
      "التواصل": 5467,
      "العهد": 5468,
      "تمن": 5469,
      "##سع": 5470,
      "ويط": 5471,
      "تستحق": 5472,
      "رايع": 5473,
      "لذلك": 5474,
      "المغرب": 5475,
      "الصدر": 5476,
      "موتانا": 5477,
      "50": 5478,
      "##سكري": 5479,
      "##لدي": 5480,
      "موعد": 5481,
      "امة": 5482,
      "ماني": 5483,
      "دقايق": 5484,
      "##لرك": 5485,
      "الجما": 5486,
      "الارهاب": 5487,
      "حقوق": 5488,
      "الاسبوع": 5489,
      "والمومنات": 5490,
      "نصر": 5491,
      "ويع": 5492,
      "نقول": 5493,
      "قم": 5494,
      "##برني": 5495,
      "احم": 5496,
      "القر": 5497,
      "الصور": 5498,
      "##بيت": 5499,
      "##امه": 5500,
      "الزمان": 5501,
      "##لوقتي": 5502,
      "##ليت": 5503,
      "❤❤": 5504,
      "هدا": 5505,
      "الاسد": 5506,
      "ادعو": 5507,
      "شت": 5508,
      "##دع": 5509,
      "جماهير": 5510,
      "##بيح": 5511,
      "on": 5512,
      "امتح": 5513,
      "خفي": 5514,
      "قليلا": 5515,
      "فط": 5516,
      "21": 5517,
      "عما": 5518,
      "ومر": 5519,
      "un": 5520,
      "وفاة": 5521,
      "معايا": 5522,
      "##ثي": 5523,
      "وحي": 5524,
      "واهدني": 5525,
      "تفك": 5526,
      "الوضوء": 5527,
      "تقريبا": 5528,
      "##حين": 5529,
      "فرحا": 5530,
      "وسي": 5531,
      "ويد": 5532,
      "بيا": 5533,
      "العش": 5534,
      "اقرا": 5535,
      "ثبت": 5536,
      "##متع": 5537,
      "مقت": 5538,
      "يابو": 5539,
      "كلامك": 5540,
      "##خيل": 5541,
      "الشرق": 5542,
      "اطفال": 5543,
      "نار": 5544,
      "##كنه": 5545,
      "الواقع": 5546,
      "مدرب": 5547,
      "حاجات": 5548,
      "المنتخب": 5549,
      "بيه": 5550,
      "جميله": 5551,
      "قانون": 5552,
      "سبع": 5553,
      "##رحل": 5554,
      "ماهي": 5555,
      "##ليات": 5556,
      "##ستان": 5557,
      "##يدان": 5558,
      "ويخ": 5559,
      "ويوم": 5560,
      "دكتور": 5561,
      "##ناها": 5562,
      "##قبلا": 5563,
      "بعدين": 5564,
      "##ربت": 5565,
      "بدل": 5566,
      "اعتقد": 5567,
      "اخوي": 5568,
      "امرنا": 5569,
      "فاست": 5570,
      "عندهم": 5571,
      "اكل": 5572,
      "##جرة": 5573,
      "ارجو": 5574,
      "عافيت": 5575,
      "##ويتر": 5576,
      "اعلن": 5577,
      "طلعت": 5578,
      "واحفظ": 5579,
      "##تيجة": 5580,
      "##اقت": 5581,
      "##خرف": 5582,
      "فب": 5583,
      "##زلت": 5584,
      "نزل": 5585,
      "ونت": 5586,
      "الشريف": 5587,
      "اعيش": 5588,
      "##يفه": 5589,
      "نسي": 5590,
      "حياته": 5591,
      "الحبيب": 5592,
      "وقنا": 5593,
      "تسمع": 5594,
      "الصاد": 5595,
      "عملت": 5596,
      "الهوى": 5597,
      "حقا": 5598,
      "راجعون": 5599,
      "##هدف": 5600,
      "صيام": 5601,
      "حافظ": 5602,
      "ذنبي": 5603,
      "الشهر": 5604,
      "رش": 5605,
      "##واي": 5606,
      "الرك": 5607,
      "تركي": 5608,
      "انتظر": 5609,
      "فز": 5610,
      "دلوقتي": 5611,
      "سواء": 5612,
      "وتول": 5613,
      "ماد": 5614,
      "تكت": 5615,
      "بيك": 5616,
      "##يفك": 5617,
      "اعذنا": 5618,
      "ويش": 5619,
      "وكم": 5620,
      "مبرووك": 5621,
      "انزل": 5622,
      "الصحة": 5623,
      "المكان": 5624,
      "سجل": 5625,
      "يرى": 5626,
      "منطقة": 5627,
      "حرب": 5628,
      "هديت": 5629,
      "شارك": 5630,
      "الماء": 5631,
      "##مح": 5632,
      "##ولار": 5633,
      "##nd": 5634,
      "😍😍": 5635,
      "وذلك": 5636,
      "##رباء": 5637,
      "##وارع": 5638,
      "لخ": 5639,
      "الجزاير": 5640,
      "فلو": 5641,
      "امراة": 5642,
      "بتت": 5643,
      "باست": 5644,
      "حينما": 5645,
      "اهلا": 5646,
      "واي": 5647,
      "يرت": 5648,
      "##ايات": 5649,
      "ماله": 5650,
      "السلط": 5651,
      "##ین": 5652,
      "خلا": 5653,
      "واما": 5654,
      "لهذا": 5655,
      "فصلت": 5656,
      "تموت": 5657,
      "بيننا": 5658,
      "##اعات": 5659,
      "حبيبتي": 5660,
      "##فيك": 5661,
      "توليت": 5662,
      "احبه": 5663,
      "تجي": 5664,
      "بمناسبة": 5665,
      "الجميلة": 5666,
      "الاز": 5667,
      "رز": 5668,
      "السك": 5669,
      "العز": 5670,
      "يمكنك": 5671,
      "نفسها": 5672,
      "موضوع": 5673,
      "وتق": 5674,
      "الحرب": 5675,
      "السبب": 5676,
      "الحكومة": 5677,
      "ذهب": 5678,
      "شاب": 5679,
      "بعيدا": 5680,
      "##رحمن": 5681,
      "بيني": 5682,
      "وتد": 5683,
      "قايمة": 5684,
      "فهي": 5685,
      "##ion": 5686,
      "##جات": 5687,
      "الفق": 5688,
      "##طيني": 5689,
      "بهذا": 5690,
      "خسر": 5691,
      "تملك": 5692,
      "ره": 5693,
      "عامل": 5694,
      "ازل": 5695,
      "##بطال": 5696,
      "المشكلة": 5697,
      "سمعت": 5698,
      "مدير": 5699,
      "##صري": 5700,
      "وقف": 5701,
      "تحبه": 5702,
      "##كمة": 5703,
      "##كرر": 5704,
      "##لست": 5705,
      "رايت": 5706,
      "استغفار": 5707,
      "##اينا": 5708,
      "حفل": 5709,
      "يستطيع": 5710,
      "##لوها": 5711,
      "اهو": 5712,
      "##ودي": 5713,
      "تبارك": 5714,
      "للذين": 5715,
      "##اسب": 5716,
      "كار": 5717,
      "سبي": 5718,
      "لاح": 5719,
      "نجاح": 5720,
      "وللم": 5721,
      "باحد": 5722,
      "اتوقع": 5723,
      "النش": 5724,
      "##ليش": 5725,
      "واحده": 5726,
      "قوي": 5727,
      "داخ": 5728,
      "##علق": 5729,
      "دموع": 5730,
      "##خصص": 5731,
      "واض": 5732,
      "بطولة": 5733,
      "الباط": 5734,
      "غد": 5735,
      "اتنا": 5736,
      "وشكرك": 5737,
      "لاخ": 5738,
      "سيل": 5739,
      "اهلي": 5740,
      "##تال": 5741,
      "جاه": 5742,
      "عشق": 5743,
      "شايف": 5744,
      "الاك": 5745,
      "غيري": 5746,
      "غيابك": 5747,
      "والاموات": 5748,
      "الاثنين": 5749,
      "فيلم": 5750,
      "معت": 5751,
      "##جاوز": 5752,
      "تماما": 5753,
      "يتكلم": 5754,
      "2015": 5755,
      "##موح": 5756,
      "تعلق": 5757,
      "34": 5758,
      "الانبياء": 5759,
      "البقرة": 5760,
      "كر": 5761,
      "##فاول": 5762,
      "الرابط": 5763,
      "فلم": 5764,
      "محمود": 5765,
      "اﻻ": 5766,
      "صاح": 5767,
      "والذين": 5768,
      "##جاج": 5769,
      "##باع": 5770,
      "عزي": 5771,
      "افلا": 5772,
      "الطا": 5773,
      "واط": 5774,
      "روض": 5775,
      "وامن": 5776,
      "بحبك": 5777,
      "مافيه": 5778,
      "الحس": 5779,
      "وتولني": 5780,
      "١٤": 5781,
      "تكتب": 5782,
      "قدمت": 5783,
      "66": 5784,
      "ويست": 5785,
      "##شع": 5786,
      "الحرمين": 5787,
      "يخلي": 5788,
      "##فكر": 5789,
      "##راع": 5790,
      "حولك": 5791,
      "##حف": 5792,
      "مغفرة": 5793,
      "اغلب": 5794,
      "##ذنب": 5795,
      "سف": 5796,
      "القيم": 5797,
      "##وسط": 5798,
      "فانك": 5799,
      "##ديا": 5800,
      "##ورد": 5801,
      "كرة": 5802,
      "السف": 5803,
      "واك": 5804,
      "وصحبه": 5805,
      "##صبر": 5806,
      "فرحة": 5807,
      "جماعة": 5808,
      "الحال": 5809,
      "##باه": 5810,
      "العامة": 5811,
      "##عن": 5812,
      "عينك": 5813,
      "جمعة": 5814,
      "لربي": 5815,
      "ياارب": 5816,
      "مطر": 5817,
      "دقيقة": 5818,
      "واليه": 5819,
      "توكلنا": 5820,
      "##واجه": 5821,
      "##ow": 5822,
      "وحب": 5823,
      "##ضعف": 5824,
      "والعافية": 5825,
      "##واق": 5826,
      "التش": 5827,
      "المومن": 5828,
      "حضر": 5829,
      "الجم": 5830,
      "هيية": 5831,
      "شلون": 5832,
      "تطلع": 5833,
      "بحاجة": 5834,
      "بالتوفيق": 5835,
      "نسيت": 5836,
      "هيا": 5837,
      "للذي": 5838,
      "يستاهل": 5839,
      "القوم": 5840,
      "المبارك": 5841,
      "للان": 5842,
      "الغالي": 5843,
      "تنسى": 5844,
      "سمعي": 5845,
      "##كى": 5846,
      "زوال": 5847,
      "ظلما": 5848,
      "المحت": 5849,
      "الزخرف": 5850,
      "##جاع": 5851,
      "الدول": 5852,
      "عقب": 5853,
      "##ومات": 5854,
      "حمدا": 5855,
      "الخطا": 5856,
      "##شار": 5857,
      "جيدا": 5858,
      "واليوم": 5859,
      "طهر": 5860,
      "حدود": 5861,
      "لعل": 5862,
      "جديدا": 5863,
      "الحل": 5864,
      "اصاب": 5865,
      "يبد": 5866,
      "سيكون": 5867,
      "بلي": 5868,
      "بحلالك": 5869,
      "فح": 5870,
      "##داه": 5871,
      "فضلك": 5872,
      "##ريبة": 5873,
      "اجا": 5874,
      "اعلام": 5875,
      "طبيعي": 5876,
      "عبده": 5877,
      "كويس": 5878,
      "طه": 5879,
      "زه": 5880,
      "سالم": 5881,
      "اا": 5882,
      "##اتم": 5883,
      "حسبنا": 5884,
      "حرامك": 5885,
      "♡♡": 5886,
      "يزيد": 5887,
      "واكثر": 5888,
      "اموت": 5889,
      "جيش": 5890,
      "##ادية": 5891,
      "ينتظر": 5892,
      "مباركا": 5893,
      "انط": 5894,
      "غياب": 5895,
      "المنافق": 5896,
      "معد": 5897,
      "سناب": 5898,
      "ضح": 5899,
      "##اسم": 5900,
      "واحت": 5901,
      "ومس": 5902,
      "الذى": 5903,
      "الوضع": 5904,
      "واجب": 5905,
      "يستغفر": 5906,
      "تدخل": 5907,
      "مساعد": 5908,
      "الحنين": 5909,
      "ياس": 5910,
      "صحيفة": 5911,
      "لى": 5912,
      "الساعه": 5913,
      "للغ": 5914,
      "##اجد": 5915,
      "خاصة": 5916,
      "##يراني": 5917,
      "الشهيد": 5918,
      "الباب": 5919,
      "##امت": 5920,
      "عملية": 5921,
      "قاد": 5922,
      "بالخ": 5923,
      "الاهتمام": 5924,
      "تعمل": 5925,
      "ملام": 5926,
      "الحظ": 5927,
      "وبم": 5928,
      "فرصة": 5929,
      "وارحمنا": 5930,
      "ساك": 5931,
      "نهايي": 5932,
      "الجه": 5933,
      "التغريدة": 5934,
      "حبه": 5935,
      "الرعد": 5936,
      "الافضل": 5937,
      "رغ": 5938,
      "##خرة": 5939,
      "المرا": 5940,
      "##شرق": 5941,
      "##عامل": 5942,
      "##تو": 5943,
      "القلم": 5944,
      "واقع": 5945,
      "عليم": 5946,
      "شكل": 5947,
      "الشعر": 5948,
      "روا": 5949,
      "##عج": 5950,
      "الدفاع": 5951,
      "##حان": 5952,
      "الغياب": 5953,
      "صارت": 5954,
      "وصف": 5955,
      "فوا": 5956,
      "ارواح": 5957,
      "کی": 5958,
      "##صدقاء": 5959,
      "العرض": 5960,
      "##لمني": 5961,
      "قوات": 5962,
      "##طفى": 5963,
      "سعادتي": 5964,
      "راش": 5965,
      "عبدالرحمن": 5966,
      "قرا": 5967,
      "ومح": 5968,
      "العيون": 5969,
      "شخصا": 5970,
      "##em": 5971,
      "هى": 5972,
      "الخارج": 5973,
      "الجب": 5974,
      "والمع": 5975,
      "الفيديو": 5976,
      "لمدة": 5977,
      "التعب": 5978,
      "كذب": 5979,
      "الجزيرة": 5980,
      "##بته": 5981,
      "علاق": 5982,
      "##زام": 5983,
      "لشخص": 5984,
      "قس": 5985,
      "##ورين": 5986,
      "##جو": 5987,
      "تكلني": 5988,
      "##دن": 5989,
      "معانا": 5990,
      "اشرح": 5991,
      "##بيض": 5992,
      "الطفل": 5993,
      "بدي": 5994,
      "واله": 5995,
      "23": 5996,
      "فاكر": 5997,
      "اقدام": 5998,
      "الخوف": 5999,
      "##عدون": 6000,
      "##ذف": 6001,
      "الدا": 6002,
      "الكافرين": 6003,
      "##oo": 6004,
      "يحم": 6005,
      "گل": 6006,
      "##هاا": 6007,
      "##ايح": 6008,
      "استاذ": 6009,
      "البار": 6010,
      "تقوم": 6011,
      "كفو": 6012,
      "ورسوله": 6013,
      "بصري": 6014,
      "الار": 6015,
      "منز": 6016,
      "الينا": 6017,
      "يعنى": 6018,
      "الغفور": 6019,
      "##وعا": 6020,
      "يغير": 6021,
      "##برع": 6022,
      "الثانية": 6023,
      "##ناق": 6024,
      "وتم": 6025,
      "للمس": 6026,
      "ويغفر": 6027,
      "افع": 6028,
      "مقد": 6029,
      "##حكي": 6030,
      "##لالي": 6031,
      "be": 6032,
      "بعدك": 6033,
      "اهلك": 6034,
      "مبس": 6035,
      "طويل": 6036,
      "اردت": 6037,
      "الاخبار": 6038,
      "ولوالدي": 6039,
      "نورا": 6040,
      "##وتك": 6041,
      "بصوت": 6042,
      "انعم": 6043,
      "لنفسك": 6044,
      "الراي": 6045,
      "##ابن": 6046,
      "السبت": 6047,
      "للام": 6048,
      "فاحفظ": 6049,
      "##الها": 6050,
      "##تهي": 6051,
      "الامة": 6052,
      "##روي": 6053,
      "##شرف": 6054,
      "النب": 6055,
      "##حده": 6056,
      "##لرب": 6057,
      "اسي": 6058,
      "علاقة": 6059,
      "اعلان": 6060,
      "##نق": 6061,
      "بمت": 6062,
      "##بق": 6063,
      "بيع": 6064,
      "علام": 6065,
      "اكفني": 6066,
      "بشرني": 6067,
      "ارجع": 6068,
      "اهداف": 6069,
      "##عنا": 6070,
      "انظر": 6071,
      "وجعل": 6072,
      "الحم": 6073,
      "تفهم": 6074,
      "البس": 6075,
      "ضرب": 6076,
      "توقع": 6077,
      "ولع": 6078,
      "شمس": 6079,
      "متابعين": 6080,
      "ماك": 6081,
      "الداخلية": 6082,
      "اعلى": 6083,
      "نعرف": 6084,
      "الحديد": 6085,
      "رون": 6086,
      "##نني": 6087,
      "الاستاذ": 6088,
      "العلاقات": 6089,
      "بحق": 6090,
      "دني": 6091,
      "نقم": 6092,
      "##خدام": 6093,
      "ورحمة": 6094,
      "وبت": 6095,
      "بالط": 6096,
      "خاف": 6097,
      "الشاعر": 6098,
      "##للب": 6099,
      "شغل": 6100,
      "مسجد": 6101,
      "يعلن": 6102,
      "يبقي": 6103,
      "والذي": 6104,
      "##ir": 6105,
      "##ولية": 6106,
      "##اشتاق": 6107,
      "الاقت": 6108,
      "فرن": 6109,
      "بكرة": 6110,
      "وعلي": 6111,
      "##ضان": 6112,
      "دة": 6113,
      "سام": 6114,
      "ماء": 6115,
      "الاردن": 6116,
      "البش": 6117,
      "##رتويت": 6118,
      "ضاقت": 6119,
      "ذك": 6120,
      "تجمع": 6121,
      "رسميا": 6122,
      "28": 6123,
      "الثورة": 6124,
      "الملايكة": 6125,
      "##غني": 6126,
      "##اضر": 6127,
      "لتح": 6128,
      "لايك": 6129,
      "فضله": 6130,
      "تصرف": 6131,
      "وها": 6132,
      "الكرة": 6133,
      "ديني": 6134,
      "اغنية": 6135,
      "العشر": 6136,
      "عود": 6137,
      "اعز": 6138,
      "والمسلمات": 6139,
      "سلي": 6140,
      "نعلم": 6141,
      "الحزم": 6142,
      "نشوف": 6143,
      "##رامة": 6144,
      "تبدا": 6145,
      "##سكر": 6146,
      "تسوي": 6147,
      "اللب": 6148,
      "خدمة": 6149,
      "65": 6150,
      "جار": 6151,
      "القضاء": 6152,
      "انتو": 6153,
      "مجتمع": 6154,
      "التفكير": 6155,
      "##رسل": 6156,
      "جنود": 6157,
      "يبدا": 6158,
      "سيب": 6159,
      "##واطر": 6160,
      "##ايج": 6161,
      "##اها": 6162,
      "##مم": 6163,
      "المقا": 6164,
      "مستوى": 6165,
      "دوما": 6166,
      "##صرت": 6167,
      "تستاهل": 6168,
      "دليل": 6169,
      "بالري": 6170,
      "الظروف": 6171,
      "يعطي": 6172,
      "عذ": 6173,
      "منو": 6174,
      "##الغ": 6175,
      "ساب": 6176,
      "##للغ": 6177,
      "فلوس": 6178,
      "غض": 6179,
      "واسعد": 6180,
      "يظهر": 6181,
      "##ليون": 6182,
      "مشتاق": 6183,
      "فرا": 6184,
      "مقابل": 6185,
      "علاج": 6186,
      "قيوم": 6187,
      "هيك": 6188,
      "##لسان": 6189,
      "معلوم": 6190,
      "اللغ": 6191,
      "##بكة": 6192,
      "مبد": 6193,
      "بلاد": 6194,
      "sou": 6195,
      "حيا": 6196,
      "يسعدك": 6197,
      "تكره": 6198,
      "##اراتي": 6199,
      "اسمها": 6200,
      "واحب": 6201,
      "الوق": 6202,
      "##صرف": 6203,
      "عوض": 6204,
      "المعت": 6205,
      "صوره": 6206,
      "الباطل": 6207,
      "##هاجم": 6208,
      "كلب": 6209,
      "راشد": 6210,
      "المعلم": 6211,
      "##اعي": 6212,
      "##نفس": 6213,
      "وحدة": 6214,
      "لرب": 6215,
      "موسى": 6216,
      "السيد": 6217,
      "المف": 6218,
      "بدر": 6219,
      "درب": 6220,
      "امرا": 6221,
      "تروح": 6222,
      "للمتقين": 6223,
      "##اهم": 6224,
      "##برياء": 6225,
      "##زيون": 6226,
      "اهتمام": 6227,
      "ياص": 6228,
      "سعي": 6229,
      "شاي": 6230,
      "##ريا": 6231,
      "العصر": 6232,
      "بينما": 6233,
      "الزعيم": 6234,
      "اند": 6235,
      "##قون": 6236,
      "هر": 6237,
      "يرزق": 6238,
      "##يتني": 6239,
      "التواب": 6240,
      "مسلسل": 6241,
      "##اءة": 6242,
      "اترك": 6243,
      "الشام": 6244,
      "يرفع": 6245,
      "لگ": 6246,
      "سيف": 6247,
      "##le": 6248,
      "انج": 6249,
      "بحر": 6250,
      "فراق": 6251,
      "40": 6252,
      "##يسى": 6253,
      "وملايك": 6254,
      "نسال": 6255,
      "الاجر": 6256,
      "##حث": 6257,
      "##وعه": 6258,
      "##لاني": 6259,
      "الغلا": 6260,
      "##ak": 6261,
      "يخرج": 6262,
      "##امن": 6263,
      "تفكر": 6264,
      "ياج": 6265,
      "##بث": 6266,
      "المجلس": 6267,
      "الشارع": 6268,
      "ويج": 6269,
      "##زون": 6270,
      "##نته": 6271,
      "##جية": 6272,
      "تتكلم": 6273,
      "بابا": 6274,
      "وراء": 6275,
      "اختبار": 6276,
      "الانس": 6277,
      "ارى": 6278,
      "##ہا": 6279,
      "يوف": 6280,
      "اروح": 6281,
      "##عها": 6282,
      "##اجي": 6283,
      "##نتي": 6284,
      "الدي": 6285,
      "والمساء": 6286,
      "صباحك": 6287,
      "لاحول": 6288,
      "##ورت": 6289,
      "##دني": 6290,
      "بتق": 6291,
      "لولا": 6292,
      "يقرا": 6293,
      "ليبيا": 6294,
      "تفاصيل": 6295,
      "بيها": 6296,
      "##زيل": 6297,
      "الملعب": 6298,
      "الضحك": 6299,
      "##قينا": 6300,
      "##سون": 6301,
      "مقطع": 6302,
      "تعبت": 6303,
      "تنتظر": 6304,
      "تصدق": 6305,
      "نحو": 6306,
      "##ظي": 6307,
      "شهيد": 6308,
      "ترفع": 6309,
      "##ذوق": 6310,
      "ونس": 6311,
      "مخلص": 6312,
      "مكر": 6313,
      "الغي": 6314,
      "نريد": 6315,
      "حزين": 6316,
      "ﻓﻲ": 6317,
      "انتظ": 6318,
      "احفظني": 6319,
      "الوجه": 6320,
      "قلة": 6321,
      "يفتح": 6322,
      "بلو": 6323,
      "##سبب": 6324,
      "اصل": 6325,
      "تفت": 6326,
      "مجموعة": 6327,
      "احدكم": 6328,
      "ايات": 6329,
      "##نط": 6330,
      "اشعر": 6331,
      "كرب": 6332,
      "الشم": 6333,
      "تغي": 6334,
      "مماتك": 6335,
      "##قاق": 6336,
      "الفقر": 6337,
      "اﻷ": 6338,
      "##يرك": 6339,
      "##مون": 6340,
      "##يمه": 6341,
      "##روط": 6342,
      "انشر": 6343,
      "بقلبي": 6344,
      "ورضى": 6345,
      "يتحدث": 6346,
      "خلك": 6347,
      "متقبلا": 6348,
      "##ىء": 6349,
      "بقيت": 6350,
      "تاب": 6351,
      "ويق": 6352,
      "##مرة": 6353,
      "خايف": 6354,
      "##li": 6355,
      "بانك": 6356,
      "يعلمون": 6357,
      "رف": 6358,
      "زى": 6359,
      "والاست": 6360,
      "رق": 6361,
      "##اهدة": 6362,
      "الحوثي": 6363,
      "##زب": 6364,
      "واصلح": 6365,
      "تحقيق": 6366,
      "بيقول": 6367,
      "لاا": 6368,
      "وتك": 6369,
      "استغيث": 6370,
      "ادخل": 6371,
      "اضافة": 6372,
      "الوالد": 6373,
      "لاجل": 6374,
      "يتغير": 6375,
      "اضحك": 6376,
      "ماشي": 6377,
      "جزاء": 6378,
      "كفوا": 6379,
      "##الدو": 6380,
      "تراه": 6381,
      "برب": 6382,
      "تعلمون": 6383,
      "باخ": 6384,
      "##يخ": 6385,
      "الصوت": 6386,
      "##تري": 6387,
      "##ﺎﻟ": 6388,
      "للبي": 6389,
      "##201": 6390,
      "غاب": 6391,
      "عباده": 6392,
      "للمتواجدين": 6393,
      "فكيف": 6394,
      "١١": 6395,
      "للتغ": 6396,
      "مرسي": 6397,
      "واستغفر": 6398,
      "##وتر": 6399,
      "واعت": 6400,
      "لاه": 6401,
      "لقيت": 6402,
      "والي": 6403,
      "##رايي": 6404,
      "١٢": 6405,
      "##رجان": 6406,
      "الحسين": 6407,
      "تبكي": 6408,
      "مري": 6409,
      "وتش": 6410,
      "فاز": 6411,
      "ظلمت": 6412,
      "بض": 6413,
      "راضي": 6414,
      "كسر": 6415,
      "##لوه": 6416,
      "##يية": 6417,
      "فلك": 6418,
      "يشبه": 6419,
      "ياللي": 6420,
      "الحرية": 6421,
      "تفتح": 6422,
      "عقوب": 6423,
      "##وانا": 6424,
      "روحك": 6425,
      "فرص": 6426,
      "عوا": 6427,
      "القنا": 6428,
      "لبعض": 6429,
      "الاخير": 6430,
      "##جوز": 6431,
      "##ch": 6432,
      "##اصي": 6433,
      "النس": 6434,
      "الخبر": 6435,
      "التك": 6436,
      "بالنسبة": 6437,
      "تجاه": 6438,
      "##ولهم": 6439,
      "يومك": 6440,
      "##اخد": 6441,
      "ربكم": 6442,
      "بداخ": 6443,
      "##زات": 6444,
      "ارها": 6445,
      "بانه": 6446,
      "وبر": 6447,
      "عمن": 6448,
      "##نها": 6449,
      "بصير": 6450,
      "##ﻬﺎ": 6451,
      "ودا": 6452,
      "سمو": 6453,
      "الشتاء": 6454,
      "الاسي": 6455,
      "خلقنا": 6456,
      "المركز": 6457,
      "ركعت": 6458,
      "عالي": 6459,
      "تقب": 6460,
      "الوتر": 6461,
      "الصمد": 6462,
      "اربع": 6463,
      "##طات": 6464,
      "مرضانا": 6465,
      "##مبر": 6466,
      "فاني": 6467,
      "جبر": 6468,
      "الكلمات": 6469,
      "نو": 6470,
      "##فيذ": 6471,
      "نعيش": 6472,
      "لذة": 6473,
      "التغابن": 6474,
      "اشتاق": 6475,
      "الخال": 6476,
      "تفجير": 6477,
      "طعم": 6478,
      "الابطال": 6479,
      "##ھہ": 6480,
      "الجديدة": 6481,
      "فلما": 6482,
      "منصور": 6483,
      "##جاح": 6484,
      "##حنا": 6485,
      "مضى": 6486,
      "ينزل": 6487,
      "الرب": 6488,
      "مومن": 6489,
      "وبعدين": 6490,
      "##فيني": 6491,
      "شديد": 6492,
      "والناس": 6493,
      "شويه": 6494,
      "##بادي": 6495,
      "سلط": 6496,
      "##صاب": 6497,
      "##لمي": 6498,
      "الشورى": 6499,
      "الملكي": 6500,
      "نفوس": 6501,
      "الرجيم": 6502,
      "وجهه": 6503,
      "الفلس": 6504,
      "##فية": 6505,
      "فسيح": 6506,
      "الثالث": 6507,
      "تسعد": 6508,
      "لديك": 6509,
      "برضاك": 6510,
      "مدا": 6511,
      "##كين": 6512,
      "التعاون": 6513,
      "صدورنا": 6514,
      "للر": 6515,
      "حلا": 6516,
      "##حات": 6517,
      "تيم": 6518,
      "قيام": 6519,
      "معرض": 6520,
      "عجز": 6521,
      "استطعت": 6522,
      "والدي": 6523,
      "المستقبل": 6524,
      "صمت": 6525,
      "الانق": 6526,
      "غلا": 6527,
      "رحيم": 6528,
      "محمدا": 6529,
      "می": 6530,
      "##ابرين": 6531,
      "تخلي": 6532,
      "الجسد": 6533,
      "المصير": 6534,
      "##ريمة": 6535,
      "قالها": 6536,
      "اشف": 6537,
      "السنه": 6538,
      "تغيب": 6539,
      "يرا": 6540,
      "##عداد": 6541,
      "تلف": 6542,
      "بصورة": 6543,
      "الطعام": 6544,
      "القديم": 6545,
      "##حني": 6546,
      "ظل": 6547,
      "##سيان": 6548,
      "##bc": 6549,
      "وثبت": 6550,
      "الاخلاص": 6551,
      "##عوب": 6552,
      "شفاء": 6553,
      "عمرو": 6554,
      "بالب": 6555,
      "اتوب": 6556,
      "##دك": 6557,
      "خلقتني": 6558,
      "موسم": 6559,
      "##رور": 6560,
      "مسابقة": 6561,
      "ذنبا": 6562,
      "##ناني": 6563,
      "bah": 6564,
      "قدي": 6565,
      "احباب": 6566,
      "ويه": 6567,
      "ضعف": 6568,
      "يقدم": 6569,
      "##قرب": 6570,
      "راسي": 6571,
      "بنعم": 6572,
      "##عرض": 6573,
      "بوح": 6574,
      "##يرات": 6575,
      "الهدف": 6576,
      "56": 6577,
      "ينظر": 6578,
      "##لقت": 6579,
      "وذكر": 6580,
      "نقمتك": 6581,
      "##خرين": 6582,
      "بدني": 6583,
      "خلفي": 6584,
      "الاسلامية": 6585,
      "##يتنا": 6586,
      "##رجه": 6587,
      "وبالاسلام": 6588,
      "جنتك": 6589,
      "نكون": 6590,
      "لابد": 6591,
      "حرم": 6592,
      "توفي": 6593,
      "وارزقنا": 6594,
      "يومين": 6595,
      "يروح": 6596,
      "وفر": 6597,
      "##لسي": 6598,
      "ﻋﻠ": 6599,
      "##روري": 6600,
      "راحت": 6601,
      "الخاصة": 6602,
      "سامي": 6603,
      "سنن": 6604,
      "استمر": 6605,
      "ظه": 6606,
      "##انين": 6607,
      "##rain": 6608,
      "انتوا": 6609,
      "الجامعة": 6610,
      "درس": 6611,
      "فانا": 6612,
      "60": 6613,
      "وعي": 6614,
      "##ذنوب": 6615,
      "##لقه": 6616,
      "المم": 6617,
      "واحنا": 6618,
      "##غال": 6619,
      "الفض": 6620,
      "شهداء": 6621,
      "##وركم": 6622,
      "قولي": 6623,
      "مرس": 6624,
      "##ert": 6625,
      "ذه": 6626,
      "74": 6627,
      "⠀⠀": 6628,
      "دعا": 6629,
      "تسلي": 6630,
      "##دمات": 6631,
      "لجنة": 6632,
      "شمال": 6633,
      "##املة": 6634,
      "مظ": 6635,
      "بدات": 6636,
      "فضل": 6637,
      "قن": 6638,
      "الثقة": 6639,
      "افهم": 6640,
      "نبيا": 6641,
      "وصحة": 6642,
      "##حام": 6643,
      "الفاي": 6644,
      "دمع": 6645,
      "باه": 6646,
      "##تة": 6647,
      "لمع": 6648,
      "خاش": 6649,
      "##صاد": 6650,
      "ماج": 6651,
      "عاما": 6652,
      "شان": 6653,
      "اظن": 6654,
      "يمت": 6655,
      "##وريا": 6656,
      "دولار": 6657,
      "الحلم": 6658,
      "استودعتك": 6659,
      "##حيط": 6660,
      "وانه": 6661,
      "غالبا": 6662,
      "لكنه": 6663,
      "معاهم": 6664,
      "##حتى": 6665,
      "يصلون": 6666,
      "اشوفك": 6667,
      "ناد": 6668,
      "كرم": 6669,
      "فارس": 6670,
      "معها": 6671,
      "المبار": 6672,
      "قضية": 6673,
      "اللاعبين": 6674,
      "مشاع": 6675,
      "المرء": 6676,
      "معرفتهم": 6677,
      "الفتح": 6678,
      "المواطن": 6679,
      "💙💙": 6680,
      "##دوا": 6681,
      "##لضر": 6682,
      "تعلن": 6683,
      "الكذب": 6684,
      "تمام": 6685,
      "ليل": 6686,
      "غافر": 6687,
      "وجوه": 6688,
      "واخر": 6689,
      "##نيات": 6690,
      "المسيح": 6691,
      "##كرها": 6692,
      "يترك": 6693,
      "النت": 6694,
      "البرد": 6695,
      "النحل": 6696,
      "وموت": 6697,
      "شارع": 6698,
      "كثيرة": 6699,
      "تخيل": 6700,
      "تضحك": 6701,
      "للاست": 6702,
      "لحظات": 6703,
      "وكن": 6704,
      "تتم": 6705,
      "تغفر": 6706,
      "عبارة": 6707,
      "##11": 6708,
      "انجاز": 6709,
      "صا": 6710,
      "##فيديو": 6711,
      "بنفسك": 6712,
      "قراءة": 6713,
      "مبي": 6714,
      "زم": 6715,
      "ابا": 6716,
      "يامن": 6717,
      "لدرجة": 6718,
      "سكس": 6719,
      "الاعلامي": 6720,
      "نحتاج": 6721,
      "##جاهل": 6722,
      "الحكيم": 6723,
      "خيره": 6724,
      "ضاع": 6725,
      "##بغي": 6726,
      "ماتت": 6727,
      "##فله": 6728,
      "مرتين": 6729,
      "##وغان": 6730,
      "سعاده": 6731,
      "ياسر": 6732,
      "كذ": 6733,
      "يحمل": 6734,
      "القدس": 6735,
      "انسى": 6736,
      "##راس": 6737,
      "وبال": 6738,
      "عينيك": 6739,
      "اسوي": 6740,
      "يوميا": 6741,
      "##غار": 6742,
      "##50": 6743,
      "##رامي": 6744,
      "بيان": 6745,
      "حالي": 6746,
      "##سلم": 6747,
      "كتبت": 6748,
      "متع": 6749,
      "رفض": 6750,
      "صر": 6751,
      "قايد": 6752,
      "عندها": 6753,
      "##اسة": 6754,
      "هني": 6755,
      "صباحا": 6756,
      "##عمر": 6757,
      "وبمحمد": 6758,
      "##us": 6759,
      "##وقيت": 6760,
      "اتكلم": 6761,
      "مباريات": 6762,
      "مشاكل": 6763,
      "ايمان": 6764,
      "الشمال": 6765,
      "مجانا": 6766,
      "رايك": 6767,
      "حسنا": 6768,
      "الدجال": 6769,
      "ظروف": 6770,
      "ايدي": 6771,
      "غيب": 6772,
      "جرب": 6773,
      "جنب": 6774,
      "##عوه": 6775,
      "التفاصيل": 6776,
      "الحرام": 6777,
      "اسط": 6778,
      "مطار": 6779,
      "اداء": 6780,
      "تصوير": 6781,
      "واليك": 6782,
      "عظم": 6783,
      "واجر": 6784,
      "##im": 6785,
      "رايعة": 6786,
      "##سينا": 6787,
      "شره": 6788,
      "السابق": 6789,
      "غي": 6790,
      "رونالدو": 6791,
      "نجوم": 6792,
      "##اجل": 6793,
      "مابي": 6794,
      "الصديق": 6795,
      "الجمهور": 6796,
      "ﺍﻟﻠ": 6797,
      "خادم": 6798,
      "بروح": 6799,
      "اختر": 6800,
      "امطار": 6801,
      "والمسلمين": 6802,
      "وكيف": 6803,
      "صنا": 6804,
      "##شفت": 6805,
      "واث": 6806,
      "ماا": 6807,
      "الجد": 6808,
      "48": 6809,
      "##زية": 6810,
      "##خان": 6811,
      "البلاد": 6812,
      "تعطي": 6813,
      "الشهداء": 6814,
      "تذ": 6815,
      "مواطن": 6816,
      "تحدث": 6817,
      "الني": 6818,
      "العاص": 6819,
      "موظ": 6820,
      "صحة": 6821,
      "##مره": 6822,
      "##رامج": 6823,
      "##وجد": 6824,
      "خلقت": 6825,
      "واذ": 6826,
      "بلغنا": 6827,
      "فليس": 6828,
      "ذو": 6829,
      "المتحدة": 6830,
      "##دها": 6831,
      "ربيع": 6832,
      "وجعلنا": 6833,
      "روسيا": 6834,
      "راق": 6835,
      "دخلت": 6836,
      "بالاسلام": 6837,
      "فخر": 6838,
      "##ﻤﺎ": 6839,
      "2014": 6840,
      "##اريس": 6841,
      "نتمنى": 6842,
      "##كند": 6843,
      "وجل": 6844,
      "##تماعي": 6845,
      "عايشة": 6846,
      "##❤❤": 6847,
      "يسوي": 6848,
      "منتخب": 6849,
      "##ستيان": 6850,
      "عيوب": 6851,
      "راف": 6852,
      "##ابعك": 6853,
      "سين": 6854,
      "##جرد": 6855,
      "سرا": 6856,
      "##وسع": 6857,
      "الاقل": 6858,
      "بور": 6859,
      "##افل": 6860,
      "##للسان": 6861,
      "##فف": 6862,
      "##مانا": 6863,
      "صلي": 6864,
      "مستشفى": 6865,
      "هالم": 6866,
      "##فيها": 6867,
      "باني": 6868,
      "اللسان": 6869,
      "اللھم": 6870,
      "unf": 6871,
      "##فز": 6872,
      "##طلب": 6873,
      "##ضه": 6874,
      "فولوباك": 6875,
      "##الج": 6876,
      "الوجع": 6877,
      "##ونية": 6878,
      "الابيض": 6879,
      "تنتهي": 6880,
      "اوقات": 6881,
      "##بيين": 6882,
      "ومات": 6883,
      "القانون": 6884,
      "##اقه": 6885,
      "عبي": 6886,
      "##عداء": 6887,
      "##ايها": 6888,
      "الاصدقاء": 6889,
      "##os": 6890,
      "والو": 6891,
      "##عافيه": 6892,
      "الاخيرة": 6893,
      "##ندس": 6894,
      "١٥": 6895,
      "القادمة": 6896,
      "تعني": 6897,
      "غضب": 6898,
      "##كات": 6899,
      "المدرب": 6900,
      "يعطيك": 6901,
      "##ابعه": 6902,
      "نقطة": 6903,
      "الميزان": 6904,
      "ينام": 6905,
      "وللمومنين": 6906,
      "وتعلم": 6907,
      "اردوغان": 6908,
      "الضر": 6909,
      "وبس": 6910,
      "##ثنا": 6911,
      "##غيير": 6912,
      "بينك": 6913,
      "ترج": 6914,
      "القول": 6915,
      "ماتش": 6916,
      "فالا": 6917,
      "##طرة": 6918,
      "##صى": 6919,
      "##ريج": 6920,
      "اشك": 6921,
      "##نتم": 6922,
      "احلي": 6923,
      "حقيقي": 6924,
      "مدى": 6925,
      "احترام": 6926,
      "الوفاء": 6927,
      "الدعم": 6928,
      "##وفر": 6929,
      "اتخذ": 6930,
      "##يبك": 6931,
      "البلاء": 6932,
      "العذاب": 6933,
      "##بش": 6934,
      "##لالة": 6935,
      "العطاء": 6936,
      "النمل": 6937,
      "شخصية": 6938,
      "اماني": 6939,
      "مسا": 6940,
      "اوى": 6941,
      "انز": 6942,
      "bahrain": 6943,
      "ناقص": 6944,
      "كثرة": 6945,
      "تصير": 6946,
      "الحاجة": 6947,
      "##قيت": 6948,
      "##وكم": 6949,
      "واكتب": 6950,
      "by": 6951,
      "ماكان": 6952,
      "فاقد": 6953,
      "وحين": 6954,
      "##عده": 6955,
      "حكمة": 6956,
      "##بوت": 6957,
      "##سبه": 6958,
      "ينتهي": 6959,
      "عزيزي": 6960,
      "بقول": 6961,
      "وعش": 6962,
      "##ظيف": 6963,
      "##تكي": 6964,
      "ايد": 6965,
      "بيح": 6966,
      "صدرك": 6967,
      "لحظه": 6968,
      "هالا": 6969,
      "ثانية": 6970,
      "تفس": 6971,
      "ماق": 6972,
      "ورق": 6973,
      "ذوق": 6974,
      "١٩": 6975,
      "##طنين": 6976,
      "بشار": 6977,
      "مبسوط": 6978,
      "فاحسن": 6979,
      "كويت": 6980,
      "بتحب": 6981,
      "درجات": 6982,
      "كانك": 6983,
      "##ياطين": 6984,
      "وسلموا": 6985,
      "سيدي": 6986,
      "لل": 6987,
      "نفسى": 6988,
      "سكر": 6989,
      "##لكتر": 6990,
      "هاد": 6991,
      "لاين": 6992,
      "صدر": 6993,
      "دفع": 6994,
      "##اجه": 6995,
      "لدى": 6996,
      "الشيء": 6997,
      "تفقد": 6998,
      "ماجد": 6999,
      "احببت": 7000,
      "نايف": 7001,
      "ويميت": 7002,
      "باله": 7003,
      "حن": 7004,
      "##قدار": 7005,
      "بوجود": 7006,
      "الحلقة": 7007,
      "شرا": 7008,
      "##اللهم": 7009,
      "##ليس": 7010,
      "انكم": 7011,
      "لاعبين": 7012,
      "تكلم": 7013,
      "فجاة": 7014,
      "بناء": 7015,
      "فكان": 7016,
      "النوا": 7017,
      "وتحول": 7018,
      "##شرين": 7019,
      "##حو": 7020,
      "##ورات": 7021,
      "ماعاد": 7022,
      "##اعدة": 7023,
      "اليم": 7024,
      "انصر": 7025,
      "لساني": 7026,
      "##صلح": 7027,
      "اوا": 7028,
      "حالك": 7029,
      "لاست": 7030,
      "##ضية": 7031,
      "يخليك": 7032,
      "يظلم": 7033,
      "ماية": 7034,
      "للز": 7035,
      "النعمة": 7036,
      "يفعل": 7037,
      "##افاتك": 7038,
      "at": 7039,
      "فشخ": 7040,
      "اشفي": 7041,
      "افتتاح": 7042,
      "تبت": 7043,
      "بطريقة": 7044,
      "ماس": 7045,
      "##ﻴﺮ": 7046,
      "##ورو": 7047,
      "اياه": 7048,
      "##جران": 7049,
      "الياس": 7050,
      "مولم": 7051,
      "ياا": 7052,
      "تبر": 7053,
      "نام": 7054,
      "دوا": 7055,
      "تصبحون": 7056,
      "جنوب": 7057,
      "يضحك": 7058,
      "يبعث": 7059,
      "فيقول": 7060,
      "والغنى": 7061,
      "صرف": 7062,
      "##جابه": 7063,
      "اعادة": 7064,
      "مسي": 7065,
      "البرا": 7066,
      "ﻭﺍ": 7067,
      "المتابع": 7068,
      "جمعية": 7069,
      "امور": 7070,
      "رابط": 7071,
      "اوروبا": 7072,
      "اروع": 7073,
      "عقوبتك": 7074,
      "تحط": 7075,
      "الالكتر": 7076,
      "تلاقي": 7077,
      "وﻻ": 7078,
      "هلالي": 7079,
      "خليك": 7080,
      "بيتك": 7081,
      "قبورهم": 7082,
      "بلاش": 7083,
      "مل": 7084,
      "لديه": 7085,
      "##ur": 7086,
      "مبين": 7087,
      "##ag": 7088,
      "عيال": 7089,
      "العراقي": 7090,
      "توقف": 7091,
      "الفرج": 7092,
      "برك": 7093,
      "ابيك": 7094,
      "عاصفة": 7095,
      "موق": 7096,
      "##مينا": 7097,
      "عقلك": 7098,
      "##نبي": 7099,
      "##ستيانو": 7100,
      "يهد": 7101,
      "مصير": 7102,
      "وانصرنا": 7103,
      "##ياط": 7104,
      "شاءالله": 7105,
      "كفي": 7106,
      "ونص": 7107,
      "🌹🌹": 7108,
      "حسنات": 7109,
      "##قاد": 7110,
      "😭😭": 7111,
      "سامح": 7112,
      "تاج": 7113,
      "الاحم": 7114,
      "يقرب": 7115,
      "المعا": 7116,
      "of": 7117,
      "كه": 7118,
      "يمشي": 7119,
      "##💙💙": 7120,
      "جعلت": 7121,
      "انفسنا": 7122,
      "شبه": 7123,
      "##حار": 7124,
      "مقاط": 7125,
      "وبعض": 7126,
      "تحاول": 7127,
      "صادق": 7128,
      "وانما": 7129,
      "حنين": 7130,
      "هيب": 7131,
      "زيارة": 7132,
      "##كة": 7133,
      "يعتبر": 7134,
      "والعفاف": 7135,
      "طرف": 7136,
      "تجا": 7137,
      "يهدي": 7138,
      "والتقى": 7139,
      "تعليق": 7140,
      "##جري": 7141,
      "##تام": 7142,
      "##نف": 7143,
      "##ريبه": 7144,
      "♥♥": 7145,
      "والشكر": 7146,
      "العيش": 7147,
      "##ذاكرة": 7148,
      "يونس": 7149,
      "السنين": 7150,
      "شكلي": 7151,
      "اذن": 7152,
      "عباس": 7153,
      "مباشر": 7154,
      "الثلاثاء": 7155,
      "اسمي": 7156,
      "باش": 7157,
      "فرد": 7158,
      "##عدة": 7159,
      "احبتي": 7160,
      "کے": 7161,
      "الغير": 7162,
      "طري": 7163,
      "واهلي": 7164,
      "علمت": 7165,
      "اطلع": 7166,
      "الفراق": 7167,
      "##لوع": 7168,
      "بكرا": 7169,
      "وابعد": 7170,
      "بيوت": 7171,
      "حروف": 7172,
      "يلي": 7173,
      "ودك": 7174,
      "##نسي": 7175,
      "##خصوص": 7176,
      "يصنع": 7177,
      "شكله": 7178,
      "اشهر": 7179,
      "شد": 7180,
      "التراب": 7181,
      "الجلسة": 7182,
      "الياب": 7183,
      "تترك": 7184,
      "مرحبا": 7185,
      "امان": 7186,
      "ايم": 7187,
      "##ايكم": 7188,
      "نقل": 7189,
      "اجتماع": 7190,
      "##ولورز": 7191,
      "##10": 7192,
      "قرة": 7193,
      "عقلي": 7194,
      "الست": 7195,
      "اللقاء": 7196,
      "##ياج": 7197,
      "يكت": 7198,
      "قبر": 7199,
      "نجم": 7200,
      "حدا": 7201,
      "صم": 7202,
      "وملايكته": 7203,
      "واجعلنا": 7204,
      "##عبة": 7205,
      "المقطع": 7206,
      "بالر": 7207,
      "المنطقة": 7208,
      "وري": 7209,
      "##ﻴﺎ": 7210,
      "##جهة": 7211,
      "##قك": 7212,
      "درجة": 7213,
      "١٠٠": 7214,
      "مخرج": 7215,
      "##ظبي": 7216,
      "##لضيق": 7217,
      "ذكري": 7218,
      "مميز": 7219,
      "وشكرا": 7220,
      "يهمني": 7221,
      "##ثم": 7222,
      "تطلب": 7223,
      "وطني": 7224,
      "##تل": 7225,
      "الصدا": 7226,
      "ماه": 7227,
      "##كاء": 7228,
      "الخام": 7229,
      "صاحبي": 7230,
      "فولومي": 7231,
      "الاربعاء": 7232,
      "ياريت": 7233,
      "للحين": 7234,
      "تقرا": 7235,
      "لوحد": 7236,
      "يهتم": 7237,
      "##ضيف": 7238,
      "##ياتي": 7239,
      "قبي": 7240,
      "بمتابع": 7241,
      "الانجلي": 7242,
      "لجميع": 7243,
      "منع": 7244,
      "تعليم": 7245,
      "التر": 7246,
      "##هاش": 7247,
      "لانهم": 7248,
      "##ent": 7249,
      "المحيا": 7250,
      "لاس": 7251,
      "##واري": 7252,
      "طاري": 7253,
      "##وكب": 7254,
      "ہے": 7255,
      "شمالي": 7256,
      "ينسى": 7257,
      "الفساد": 7258,
      "قطع": 7259,
      "##صرون": 7260,
      "المواقف": 7261,
      "سمعه": 7262,
      "تغيير": 7263,
      "سخ": 7264,
      "فالح": 7265,
      "##يقظ": 7266,
      "نسمع": 7267,
      "لدنك": 7268,
      "باف": 7269,
      "عنوان": 7270,
      "##ايمة": 7271,
      "التغريد": 7272,
      "نتيجة": 7273,
      "##لاع": 7274,
      "السفر": 7275,
      "درو": 7276,
      "re": 7277,
      "يصلح": 7278,
      "##ستا": 7279,
      "نايم": 7280,
      "ونفس": 7281,
      "تعرض": 7282,
      "بالدنيا": 7283,
      "##للج": 7284,
      "تقت": 7285,
      "##ثا": 7286,
      "##لقى": 7287,
      "يستر": 7288,
      "كافي": 7289,
      "الثوب": 7290,
      "الطيبة": 7291,
      "المخت": 7292,
      "فانها": 7293,
      "##ريقيا": 7294,
      "##اليات": 7295,
      "##نج": 7296,
      "نصيحة": 7297,
      "يميني": 7298,
      "##زك": 7299,
      "اسماء": 7300,
      "يلتزم": 7301,
      "القدي": 7302,
      "المشكله": 7303,
      "الضيق": 7304,
      "##رشح": 7305,
      "##قتني": 7306,
      "الدهر": 7307,
      "##بتني": 7308,
      "##عدت": 7309,
      "صديقي": 7310,
      "رحي": 7311,
      "داخلي": 7312,
      "##we": 7313,
      "عرب": 7314,
      "يقتل": 7315,
      "تلا": 7316,
      "متفق": 7317,
      "الظهر": 7318,
      "##قيقية": 7319,
      "36": 7320,
      "الايراني": 7321,
      "الاكل": 7322,
      "##زح": 7323,
      "##خم": 7324,
      "بتع": 7325,
      "الالب": 7326,
      "سقوط": 7327,
      "##ليد": 7328,
      "تصل": 7329,
      "اخرج": 7330,
      "الاجا": 7331,
      "##سكرية": 7332,
      "الباقي": 7333,
      "اثنين": 7334,
      "الليالي": 7335,
      "دينك": 7336,
      "الوطنية": 7337,
      "##اليه": 7338,
      "بالض": 7339,
      "مثلك": 7340,
      "النفوس": 7341,
      "##ub": 7342,
      "##لعن": 7343,
      "مرحلة": 7344,
      "العالمية": 7345,
      "ننت": 7346,
      "الحاجات": 7347,
      "الصوره": 7348,
      "صباحي": 7349,
      "تبقي": 7350,
      "تسليما": 7351,
      "ثورة": 7352,
      "##بين": 7353,
      "الظلم": 7354,
      "الكلب": 7355,
      "يحاول": 7356,
      "وهل": 7357,
      "مصري": 7358,
      "بيق": 7359,
      "النهاية": 7360,
      "##رفت": 7361,
      "الامان": 7362,
      "نعمه": 7363,
      "الخلاء": 7364,
      "الجمع": 7365,
      "ركعتين": 7366,
      "عبدا": 7367,
      "الطف": 7368,
      "شات": 7369,
      "وابدا": 7370,
      "##صم": 7371,
      "اتم": 7372,
      "##عاية": 7373,
      "##فتاح": 7374,
      "بيس": 7375,
      "##زر": 7376,
      "حبيت": 7377,
      "اهلها": 7378,
      "هام": 7379,
      "ويف": 7380,
      "قمر": 7381,
      "##خلف": 7382,
      "##طع": 7383,
      "عطر": 7384,
      "35": 7385,
      "اسلام": 7386,
      "سوق": 7387,
      "يكره": 7388,
      "اعجبني": 7389,
      "ماراح": 7390,
      "تبا": 7391,
      "ليله": 7392,
      "##سيه": 7393,
      "##ياده": 7394,
      "اقولك": 7395,
      "##للذ": 7396,
      "انفسكم": 7397,
      "الطرق": 7398,
      "الكر": 7399,
      "##ذكير": 7400,
      "يحزن": 7401,
      "فكره": 7402,
      "ذري": 7403,
      "جر": 7404,
      "ولاد": 7405,
      "سقط": 7406,
      "##alert": 7407,
      "قصد": 7408,
      "البري": 7409,
      "##صية": 7410,
      "##انات": 7411,
      "تفر": 7412,
      "الولا": 7413,
      "ثان": 7414,
      "الشرف": 7415,
      "الخد": 7416,
      "عارفه": 7417,
      "سخر": 7418,
      "واعلم": 7419,
      "الاحلام": 7420,
      "واف": 7421,
      "##ارهم": 7422,
      "##لبية": 7423,
      "صبرا": 7424,
      "تعالي": 7425,
      "تنظيم": 7426,
      "نظرة": 7427,
      "##وقات": 7428,
      "اللذ": 7429,
      "بتس": 7430,
      "يرضيك": 7431,
      "unfalert": 7432,
      "توفيق": 7433,
      "سلا": 7434,
      "بيف": 7435,
      "##ضم": 7436,
      "حقي": 7437,
      "الاوا": 7438,
      "##بارات": 7439,
      "يعيد": 7440,
      "صغيرة": 7441,
      "فكم": 7442,
      "قوما": 7443,
      "الكلمة": 7444,
      "يشعرون": 7445,
      "الاجتماع": 7446,
      "عادل": 7447,
      "##اريع": 7448,
      "راسك": 7449,
      "##وليك": 7450,
      "ليفر": 7451,
      "##اند": 7452,
      "اسف": 7453,
      "قوله": 7454,
      "جنيه": 7455,
      "ونور": 7456,
      "يسلم": 7457,
      "بسرعة": 7458,
      "انتظار": 7459,
      "اوص": 7460,
      "بيض": 7461,
      "الرحمة": 7462,
      "الانثى": 7463,
      "الغد": 7464,
      "جسد": 7465,
      "مانش": 7466,
      "يطلب": 7467,
      "سويت": 7468,
      "٣٠": 7469,
      "##لوي": 7470,
      "ومست": 7471,
      "لاتح": 7472,
      "بيدك": 7473,
      "افكر": 7474,
      "##ترك": 7475,
      "استغ": 7476,
      "المرح": 7477,
      "الحمدالله": 7478,
      "##شتاق": 7479,
      "رضاك": 7480,
      "جان": 7481,
      "##بتنا": 7482,
      "هذ": 7483,
      "الوس": 7484,
      "بقت": 7485,
      "وتقول": 7486,
      "وربي": 7487,
      "عت": 7488,
      "شهد": 7489,
      "واقول": 7490,
      "السودان": 7491,
      "ﻣﺎ": 7492,
      "ملح": 7493,
      "الاكثر": 7494,
      "بنك": 7495,
      "روية": 7496,
      "##اطة": 7497,
      "زد": 7498,
      "فيكم": 7499,
      "##سطة": 7500,
      "وليد": 7501,
      "اللج": 7502,
      "الوحدة": 7503,
      "##يهم": 7504,
      "لذا": 7505,
      "بدري": 7506,
      "توج": 7507,
      "حلقة": 7508,
      "##نيين": 7509,
      "الذكرى": 7510,
      "حجم": 7511,
      "sh": 7512,
      "تفعل": 7513,
      "وسعة": 7514,
      "وهناك": 7515,
      "مصدر": 7516,
      "الدار": 7517,
      "96": 7518,
      "كمية": 7519,
      "دماغ": 7520,
      "بمس": 7521,
      "اسرع": 7522,
      "لكنها": 7523,
      "يحصل": 7524,
      "انتبه": 7525,
      "وادي": 7526,
      "شاعر": 7527,
      "اخرت": 7528,
      "##شم": 7529,
      "بوس": 7530,
      "يبحث": 7531,
      "ترض": 7532,
      "لغيرك": 7533,
      "يتبع": 7534,
      "##هلا": 7535,
      "##شيخ": 7536,
      "صنعت": 7537,
      "المض": 7538,
      "##داك": 7539,
      "سوي": 7540,
      "دلو": 7541,
      "لاول": 7542,
      "فرنسا": 7543,
      "تعا": 7544,
      "للبيع": 7545,
      "ياربي": 7546,
      "احذر": 7547,
      "مدرسة": 7548,
      "تتوقع": 7549,
      "##غالي": 7550,
      "ارح": 7551,
      "البن": 7552,
      "ايفون": 7553,
      "##ine": 7554,
      "وغفر": 7555,
      "ابنا": 7556,
      "##سامح": 7557,
      "خلو": 7558,
      "ياعم": 7559,
      "##دخل": 7560,
      "##eo": 7561,
      "هون": 7562,
      "سحب": 7563,
      "اولى": 7564,
      "خطوة": 7565,
      "##مية": 7566,
      "البقاء": 7567,
      "ماين": 7568,
      "ارفع": 7569,
      "##ابتن": 7570,
      "##بابي": 7571,
      "##رسه": 7572,
      "الرحيل": 7573,
      "بشيء": 7574,
      "احدى": 7575,
      "تاكد": 7576,
      "نفسا": 7577,
      "سمحت": 7578,
      "متف": 7579,
      "تجيب": 7580,
      "##30": 7581,
      "##نهار": 7582,
      "واشهد": 7583,
      "غفور": 7584,
      "لون": 7585,
      "التربية": 7586,
      "الاحتلال": 7587,
      "##جى": 7588,
      "محبة": 7589,
      "تاك": 7590,
      "الاسلامي": 7591,
      "سييات": 7592,
      "##هوه": 7593,
      "وبشر": 7594,
      "الاحترام": 7595,
      "الامريكية": 7596,
      "طاي": 7597,
      "جهاز": 7598,
      "هريرة": 7599,
      "الخات": 7600,
      "دو": 7601,
      "##هلي": 7602,
      "بالفيديو": 7603,
      "##وكد": 7604,
      "الادب": 7605,
      "السج": 7606,
      "الانفال": 7607,
      "ولين": 7608,
      "انتهى": 7609,
      "##بناء": 7610,
      "هدية": 7611,
      "##يتد": 7612,
      "الانعام": 7613,
      "ازواج": 7614,
      "دونه": 7615,
      "ولكل": 7616,
      "الاما": 7617,
      "##داث": 7618,
      "الرقم": 7619,
      "يجعلك": 7620,
      "مشكله": 7621,
      "ابوظبي": 7622,
      "موب": 7623,
      "الذكريات": 7624,
      "ملعب": 7625,
      "ستكون": 7626,
      "يتح": 7627,
      "افريقيا": 7628,
      "وارفع": 7629,
      "اعشق": 7630,
      "##كك": 7631,
      "الامتحان": 7632,
      "مكتوب": 7633,
      "ابوي": 7634,
      "##زو": 7635,
      "يحط": 7636,
      "##غة": 7637,
      "##واضع": 7638,
      "ورجايي": 7639,
      "بشوف": 7640,
      "حكي": 7641,
      "واحسن": 7642,
      "رايح": 7643,
      "##سبوك": 7644,
      "الوزراء": 7645,
      "القوة": 7646,
      "كاملة": 7647,
      "الخارجية": 7648,
      "واني": 7649,
      "تقف": 7650,
      "القهار": 7651,
      "اختار": 7652,
      "معاي": 7653,
      "خان": 7654,
      "سبق": 7655,
      "تحي": 7656,
      "ازا": 7657,
      "مشغ": 7658,
      "##لول": 7659,
      "ميلاد": 7660,
      "خا": 7661,
      "وبصره": 7662,
      "عدن": 7663,
      "سليمان": 7664,
      "يفرح": 7665,
      "اعي": 7666,
      "القوات": 7667,
      "اليس": 7668,
      "تذر": 7669,
      "##بون": 7670,
      "حكيم": 7671,
      "مباشرة": 7672,
      "اعلنت": 7673,
      "بيست": 7674,
      "خواطر": 7675,
      "مطلوب": 7676,
      "##🇸🇦": 7677,
      "##ارقة": 7678,
      "##اتش": 7679,
      "امنت": 7680,
      "##واقع": 7681,
      "تونس": 7682,
      "ضعيف": 7683,
      "ماما": 7684,
      "تزيد": 7685,
      "لدينا": 7686,
      "##ندم": 7687,
      "##لوش": 7688,
      "مليار": 7689,
      "المجد": 7690,
      "يقولك": 7691,
      "تجعلنا": 7692,
      "شكلك": 7693,
      "الانتر": 7694,
      "بمد": 7695,
      "##بني": 7696,
      "رحل": 7697,
      "روضة": 7698,
      "المرت": 7699,
      "جزا": 7700,
      "حركة": 7701,
      "##رز": 7702,
      "استه": 7703,
      "ثانيه": 7704,
      "وموتى": 7705,
      "والتي": 7706,
      "صغيرا": 7707,
      "موم": 7708,
      "فاط": 7709,
      "يفكر": 7710,
      "وتقبل": 7711,
      "##ايهم": 7712,
      "عودة": 7713,
      "راحه": 7714,
      "التحالف": 7715,
      "عث": 7716,
      "يحس": 7717,
      "الجنا": 7718,
      "زال": 7719,
      "ولكم": 7720,
      "دورة": 7721,
      "وتحت": 7722,
      "اتي": 7723,
      "تهم": 7724,
      "لوالدي": 7725,
      "وايا": 7726,
      "قديم": 7727,
      "استطيع": 7728,
      "##sa": 7729,
      "وتست": 7730,
      "ينبغي": 7731,
      "اموال": 7732,
      "اسلوب": 7733,
      "النظ": 7734,
      "ورو": 7735,
      "##فارق": 7736,
      "تبتسم": 7737,
      "##رفين": 7738,
      "خسارة": 7739,
      "عقل": 7740,
      "##نيك": 7741,
      "بالاست": 7742,
      "فالم": 7743,
      "احي": 7744,
      "بيده": 7745,
      "سيارة": 7746,
      "املك": 7747,
      "تخاف": 7748,
      "المحب": 7749,
      "الما": 7750,
      "فضي": 7751,
      "ليوم": 7752,
      "الزوج": 7753,
      "اتحاد": 7754,
      "تشي": 7755,
      "فتاة": 7756,
      "معظم": 7757,
      "وهد": 7758,
      "السلطان": 7759,
      "امتحان": 7760,
      "تمشي": 7761,
      "تفرح": 7762,
      "##صن": 7763,
      "عارفين": 7764,
      "اطعم": 7765,
      "##ثه": 7766,
      "##طيك": 7767,
      "معين": 7768,
      "العشق": 7769,
      "🇸🇦": 7770,
      "فد": 7771,
      "يديك": 7772,
      "نقاط": 7773,
      "الراس": 7774,
      "المرض": 7775,
      "##ri": 7776,
      "دفاع": 7777,
      "بيكون": 7778,
      "##بخ": 7779,
      "##حية": 7780,
      "كانه": 7781,
      "الطي": 7782,
      "واقف": 7783,
      "خروج": 7784,
      "الخالقين": 7785,
      "##لومة": 7786,
      "حفظه": 7787,
      "مقتل": 7788,
      "افعل": 7789,
      "بالرياض": 7790,
      "ولمن": 7791,
      "فج": 7792,
      "للابد": 7793,
      "##فعله": 7794,
      "ايمانا": 7795,
      "صام": 7796,
      "انتى": 7797,
      "اكثروا": 7798,
      "الته": 7799,
      "يفس": 7800,
      "لاش": 7801,
      "##ناا": 7802,
      "وجودك": 7803,
      "##رافي": 7804,
      "##eb": 7805,
      "انتهت": 7806,
      "ويبقى": 7807,
      "الريال": 7808,
      "##يمين": 7809,
      "##قلون": 7810,
      "وتعالى": 7811,
      "الوصل": 7812,
      "يصلي": 7813,
      "يجهل": 7814,
      "اموات": 7815,
      "عهدك": 7816,
      "سفر": 7817,
      "الكاس": 7818,
      "52": 7819,
      "افرح": 7820,
      "بهذه": 7821,
      "تصريح": 7822,
      "دير": 7823,
      "تانى": 7824,
      "مادري": 7825,
      "الفضل": 7826,
      "##واز": 7827,
      "يبكي": 7828,
      "##اهي": 7829,
      "وقالوا": 7830,
      "نقص": 7831,
      "بسيط": 7832,
      "قولت": 7833,
      "المعل": 7834,
      "##مانينة": 7835,
      "38": 7836,
      "##فقر": 7837,
      "وعمل": 7838,
      "##حمة": 7839,
      "نموت": 7840,
      "سعر": 7841,
      "تضيع": 7842,
      "##سو": 7843,
      "تبين": 7844,
      "ياليت": 7845,
      "الاحوال": 7846,
      "ابتسامة": 7847,
      "##ادات": 7848,
      "العقول": 7849,
      "غني": 7850,
      "جابر": 7851,
      "مجه": 7852,
      "وبط": 7853,
      "مواقع": 7854,
      "محافظة": 7855,
      "بتب": 7856,
      "البلا": 7857,
      "سنا": 7858,
      "العسكري": 7859,
      "صفحة": 7860,
      "وبمع": 7861,
      "##لتقي": 7862,
      "ليفربول": 7863,
      "##ديات": 7864,
      "والروح": 7865,
      "لفت": 7866,
      "الركوع": 7867,
      "##ud": 7868,
      "نجد": 7869,
      "عشرة": 7870,
      "التعامل": 7871,
      "وترك": 7872,
      "لذ": 7873,
      "قيد": 7874,
      "##ورية": 7875,
      "خصوص": 7876,
      "تمنيت": 7877,
      "##وعب": 7878,
      "اخبر": 7879,
      "##90": 7880,
      "sa": 7881,
      "عالمي": 7882,
      "يحسب": 7883,
      "مصطفى": 7884,
      "##شين": 7885,
      "القرار": 7886,
      "حام": 7887,
      "الطايف": 7888,
      "حاله": 7889,
      "يساعد": 7890,
      "##ودك": 7891,
      "جزاك": 7892,
      "##سنال": 7893,
      "يحكم": 7894,
      "تقرير": 7895,
      "اليمني": 7896,
      "ابيض": 7897,
      "مستخدم": 7898,
      "اصدقاء": 7899,
      "اختيار": 7900,
      "مهرجان": 7901,
      "##ومين": 7902,
      "تخسر": 7903,
      "بفضل": 7904,
      "##للع": 7905,
      "يومنون": 7906,
      "##شفي": 7907,
      "خليفة": 7908,
      "فيا": 7909,
      "السعيد": 7910,
      "السجد": 7911,
      "المحبه": 7912,
      "##ارض": 7913,
      "شعو": 7914,
      "بعضهم": 7915,
      "الشعراء": 7916,
      "2019": 7917,
      "والر": 7918,
      "نمت": 7919,
      "يعوض": 7920,
      "رجلا": 7921,
      "مجنون": 7922,
      "يبت": 7923,
      "##ew": 7924,
      "رام": 7925,
      "للمسلمين": 7926,
      "ابسط": 7927,
      "الذه": 7928,
      "##قصى": 7929,
      "وقتها": 7930,
      "اوجاع": 7931,
      "اسود": 7932,
      "زود": 7933,
      "للشيخ": 7934,
      "بشي": 7935,
      "##ليا": 7936,
      "الحشر": 7937,
      "وياك": 7938,
      "رحلة": 7939,
      "وعندما": 7940,
      "طارق": 7941,
      "متاع": 7942,
      "زعيم": 7943,
      "ستر": 7944,
      "الذهب": 7945,
      "ذكريات": 7946,
      "##نز": 7947,
      "##ul": 7948,
      "العنك": 7949,
      "باريس": 7950,
      "لعي": 7951,
      "تهد": 7952,
      "التركي": 7953,
      "الذات": 7954,
      "##اقة": 7955,
      "فكن": 7956,
      "تتحدث": 7957,
      "انص": 7958,
      "لندن": 7959,
      "میں": 7960,
      "الاهم": 7961,
      "##th": 7962,
      "##فوا": 7963,
      "تبد": 7964,
      "الكويتي": 7965,
      "##صام": 7966,
      "##زاز": 7967,
      "##قرار": 7968,
      "الهموم": 7969,
      "بحمده": 7970,
      "##un": 7971,
      "ضيفني": 7972,
      "نعيم": 7973,
      "بمتابعتك": 7974,
      "يوفقك": 7975,
      "##ذبين": 7976,
      "وفت": 7977,
      "مالا": 7978,
      "##وصل": 7979,
      "##arab": 7980,
      "تدور": 7981,
      "وبمعافاتك": 7982,
      "طاعة": 7983,
      "ابر": 7984,
      "حوار": 7985,
      "##قولة": 7986,
      "تدريب": 7987,
      "بواسطة": 7988,
      "المصرية": 7989,
      "##لگ": 7990,
      "جده": 7991,
      "الابر": 7992,
      "##خاف": 7993,
      "##طيح": 7994,
      "##عني": 7995,
      "يسجد": 7996,
      "عمرها": 7997,
      "الجاي": 7998,
      "العنكبوت": 7999,
      "الضحى": 8000,
      "مون": 8001,
      "الامريكي": 8002,
      "نجران": 8003,
      "رتويت✔": 8004,
      "فاعلم": 8005,
      "بذلك": 8006,
      "##بها": 8007,
      "##حلة": 8008,
      "حيل": 8009,
      "حت": 8010,
      "ادرك": 8011,
      "خاطر": 8012,
      "##ارته": 8013,
      "##على": 8014,
      "##ﻴﻦ": 8015,
      "متعب": 8016,
      "المراه": 8017,
      "فتحه": 8018,
      "داعي": 8019,
      "مول": 8020,
      "##ec": 8021,
      "سميع": 8022,
      "حضور": 8023,
      "يمسك": 8024,
      "والى": 8025,
      "القهوة": 8026,
      "##ربوا": 8027,
      "قابوس": 8028,
      "اشكر": 8029,
      "##ماد": 8030,
      "ياد": 8031,
      "الصحيح": 8032,
      "الاجتماعي": 8033,
      "وبركة": 8034,
      "الرسمي": 8035,
      "دف": 8036,
      "##افرين": 8037,
      "اينما": 8038,
      "70": 8039,
      "وابت": 8040,
      "##wa": 8041,
      "فهل": 8042,
      "بعدد": 8043,
      "قصر": 8044,
      "بسرعه": 8045,
      "مالها": 8046,
      "فاعبد": 8047,
      "باد": 8048,
      "فقدت": 8049,
      "شري": 8050,
      "التلف": 8051,
      "العوا": 8052,
      "اتبع": 8053,
      "ثقة": 8054,
      "##یا": 8055,
      "ربع": 8056,
      "الوات": 8057,
      "وتج": 8058,
      "قوية": 8059,
      "رساله": 8060,
      "مرتاح": 8061,
      "تعز": 8062,
      "قبره": 8063,
      "سيء": 8064,
      "##فقود": 8065,
      "اجد": 8066,
      "اخط": 8067,
      "##یک": 8068,
      "الاسم": 8069,
      "طبيع": 8070,
      "##ليب": 8071,
      "اسعار": 8072,
      "شقاق": 8073,
      "ناج": 8074,
      "ثقي": 8075,
      "السجدتين": 8076,
      "بمش": 8077,
      "ريح": 8078,
      "جناته": 8079,
      "ينس": 8080,
      "##لولد": 8081,
      "##cl": 8082,
      "جديده": 8083,
      "اعضاء": 8084,
      "##صالات": 8085,
      "هدي": 8086,
      "طيبه": 8087,
      "الجرح": 8088,
      "##اثر": 8089,
      "##قوة": 8090,
      "الشياطين": 8091,
      "الولد": 8092,
      "الزواج": 8093,
      "المسي": 8094,
      "اوت": 8095,
      "عايزة": 8096,
      "حان": 8097,
      "##ويات": 8098,
      "اقدامنا": 8099,
      "العافيه": 8100,
      "ليالي": 8101,
      "اختلف": 8102,
      "##مسح": 8103,
      "اطلب": 8104,
      "القاهرة": 8105,
      "ثوبا": 8106,
      "جعلنا": 8107,
      "57": 8108,
      "ضم": 8109,
      "يان": 8110,
      "لطيف": 8111,
      "النسيان": 8112,
      "حولي": 8113,
      "رقاب": 8114,
      "اجهل": 8115,
      "ضاق": 8116,
      "##طية": 8117,
      "استشهاد": 8118,
      "توق": 8119,
      "ورزق": 8120,
      "صي": 8121,
      "الطور": 8122,
      "##ذير": 8123,
      "عكس": 8124,
      "اللع": 8125,
      "واغنني": 8126,
      "سود": 8127,
      "العاب": 8128,
      "امرك": 8129,
      "عضو": 8130,
      "امنية": 8131,
      "فم": 8132,
      "الخطاب": 8133,
      "##ندق": 8134,
      "##لابس": 8135,
      "mo": 8136,
      "##بتك": 8137,
      "##وحة": 8138,
      "واتبع": 8139,
      "عاط": 8140,
      "سبيله": 8141,
      "الكافرون": 8142,
      "بينا": 8143,
      "موتمر": 8144,
      "اخطاء": 8145,
      "امره": 8146,
      "وبح": 8147,
      "اطلاق": 8148,
      "ابقى": 8149,
      "الغضب": 8150,
      "29": 8151,
      "ثقتي": 8152,
      "المدرسة": 8153,
      "الشريفين": 8154,
      "الزمر": 8155,
      "اللحظة": 8156,
      "##ديها": 8157,
      "زب": 8158,
      "ذاكر": 8159,
      "الامم": 8160,
      "وقتك": 8161,
      "الاجمل": 8162,
      "##الهم": 8163,
      "90": 8164,
      "##ومية": 8165,
      "بكت": 8166,
      "خلقي": 8167,
      "تحية": 8168,
      "##صنع": 8169,
      "##لطف": 8170,
      "تجعلني": 8171,
      "الادارة": 8172,
      "عظيمة": 8173,
      "حادث": 8174,
      "ضحكت": 8175,
      "نض": 8176,
      "معكم": 8177,
      "👌🏻": 8178,
      "وتف": 8179,
      "الصيف": 8180,
      "##حباب": 8181,
      "##للہ": 8182,
      "حقيقه": 8183,
      "##موع": 8184,
      "##ut": 8185,
      "##ﻬﻢ": 8186,
      "##ﻮﺍ": 8187,
      "##قتها": 8188,
      "شيطان": 8189,
      "الانسانية": 8190,
      "الحدود": 8191,
      "زعلان": 8192,
      "وتط": 8193,
      "صبري": 8194,
      "##هہ": 8195,
      "قاعدة": 8196,
      "اضف": 8197,
      "فاش": 8198,
      "sn": 8199,
      "##قن": 8200,
      "##جيه": 8201,
      "يجمع": 8202,
      "زواج": 8203,
      "لبيك": 8204,
      "500": 8205,
      "ماعند": 8206,
      "شهادة": 8207,
      "وراح": 8208,
      "##اضرة": 8209,
      "ضر": 8210,
      "##ياها": 8211,
      "قرية": 8212,
      "يعملون": 8213,
      "##هوى": 8214,
      "##قش": 8215,
      "امتي": 8216,
      "الاو": 8217,
      "##امين": 8218,
      "ضعفي": 8219,
      "تسقط": 8220,
      "ترام": 8221,
      "خلصت": 8222,
      "لهذه": 8223,
      "##خله": 8224,
      "يذ": 8225,
      "فاضي": 8226,
      "شعار": 8227,
      "شرح": 8228,
      "بالحب": 8229,
      "##سره": 8230,
      "يطول": 8231,
      "انح": 8232,
      "##لوان": 8233,
      "يوميذ": 8234,
      "عملا": 8235,
      "تبحث": 8236,
      "مبلغ": 8237,
      "##قها": 8238,
      "نساء": 8239,
      "مستقب": 8240,
      "جبه": 8241,
      "الكفر": 8242,
      "تعملون": 8243,
      "علمتني": 8244,
      "هج": 8245,
      "##بس": 8246,
      "دقيقه": 8247,
      "الجنوب": 8248,
      "والمت": 8249,
      "الثق": 8250,
      "is": 8251,
      "لطف": 8252,
      "wh": 8253,
      "مقاعد": 8254,
      "يسرا": 8255,
      "تجاوز": 8256,
      "all": 8257,
      "حضرتك": 8258,
      "الابتسامة": 8259,
      "احزان": 8260,
      "##جلس": 8261,
      "طرق": 8262,
      "##تان": 8263,
      "##ماس": 8264,
      "همس": 8265,
      "وعدم": 8266,
      "لغة": 8267,
      "الحلوه": 8268,
      "حاولت": 8269,
      "الانتظار": 8270,
      "ردة": 8271,
      "العنزي": 8272,
      "عايزه": 8273,
      "##ريات": 8274,
      "وناس": 8275,
      "ماعرف": 8276,
      "المانيا": 8277,
      "الاشت": 8278,
      "مجال": 8279,
      "وحتى": 8280,
      "استخدام": 8281,
      "بكر": 8282,
      "عربية": 8283,
      "السرطان": 8284,
      "حفر": 8285,
      "دراسة": 8286,
      "ياق": 8287,
      "فراغ": 8288,
      "جرا": 8289,
      "الوحيدة": 8290,
      "143": 8291,
      "كبار": 8292,
      "الشرع": 8293,
      "عملوا": 8294,
      "الاماراتي": 8295,
      "##ضايق": 8296,
      "##خرا": 8297,
      "دعايي": 8298,
      "##امر": 8299,
      "قف": 8300,
      "##ظا": 8301,
      "العج": 8302,
      "بوجه": 8303,
      "خشيتك": 8304,
      "الوفا": 8305,
      "تتغير": 8306,
      "سليم": 8307,
      "قلبها": 8308,
      "حظي": 8309,
      "مواقف": 8310,
      "بلغت": 8311,
      "اجرا": 8312,
      "كلية": 8313,
      "بيم": 8314,
      "##ساها": 8315,
      "قوا": 8316,
      "مرو": 8317,
      "باسمك": 8318,
      "تغريدات": 8319,
      "##عودية": 8320,
      "حكومة": 8321,
      "مقال": 8322,
      "الليله": 8323,
      "عندكم": 8324,
      "الرياضي": 8325,
      "المقد": 8326,
      "##ينها": 8327,
      "المحبة": 8328,
      "للتغريدة": 8329,
      "فمنك": 8330,
      "عدة": 8331,
      "حقك": 8332,
      "تغريدة": 8333,
      "الاحق": 8334,
      "الشديد": 8335,
      "النهاردة": 8336,
      "حوالي": 8337,
      "ردد": 8338,
      "##يلا": 8339,
      "##لمان": 8340,
      "الشوط": 8341,
      "الدور": 8342,
      "يومن": 8343,
      "##فسار": 8344,
      "خزي": 8345,
      "محل": 8346,
      "المث": 8347,
      "انثى": 8348,
      "بلدة": 8349,
      "ماخ": 8350,
      "##ايلة": 8351,
      "طوعا": 8352,
      "مابين": 8353,
      "الشرقية": 8354,
      "هند": 8355,
      "##ver": 8356,
      "##ليف": 8357,
      "عمله": 8358,
      "الاحساس": 8359,
      "##فعش": 8360,
      "##اشة": 8361,
      "الوالدين": 8362,
      "يخلق": 8363,
      "##لاج": 8364,
      "واخره": 8365,
      "ماضي": 8366,
      "##اريه": 8367,
      "اللغة": 8368,
      "الجماهير": 8369,
      "بيحب": 8370,
      "الاسط": 8371,
      "##قوب": 8372,
      "جمعه": 8373,
      "تقدير": 8374,
      "2017": 8375,
      "##hab": 8376,
      "كاتب": 8377,
      "##ميزة": 8378,
      "محاولة": 8379,
      "الهلالي": 8380,
      "غر": 8381,
      "معلومة": 8382,
      "توعدون": 8383,
      "##نيش": 8384,
      "الموقع": 8385,
      "فجر": 8386,
      "السهر": 8387,
      "فولورز": 8388,
      "الغلط": 8389,
      "بالسلام": 8390,
      "بلادنا": 8391,
      "يحقق": 8392,
      "حايل": 8393,
      "فهذا": 8394,
      "##دب": 8395,
      "برشلونه": 8396,
      "الصيام": 8397,
      "افكار": 8398,
      "يدور": 8399,
      "بلق": 8400,
      "##باحث": 8401,
      "##oud": 8402,
      "مرك": 8403,
      "تنزل": 8404,
      "##اهدين": 8405,
      "ايامي": 8406,
      "للمش": 8407,
      "##قض": 8408,
      "طويلا": 8409,
      "هاجر": 8410,
      "يضيع": 8411,
      "اهتم": 8412,
      "تشبه": 8413,
      "بتن": 8414,
      "البرنامج": 8415,
      "مسو": 8416,
      "لعبة": 8417,
      "العدل": 8418,
      "كوي": 8419,
      "الطالب": 8420,
      "دلوقت": 8421,
      "ونعوذ": 8422,
      "ادعوا": 8423,
      "الشرطة": 8424,
      "##طايا": 8425,
      "مجد": 8426,
      "##حيان": 8427,
      "الطير": 8428,
      "ثلاثا": 8429,
      "سنت": 8430,
      "##سته": 8431,
      "صنعاء": 8432,
      "ch": 8433,
      "##ذكرك": 8434,
      "##فضح": 8435,
      "الدوام": 8436,
      "وبركته": 8437,
      "تقد": 8438,
      "##زقه": 8439,
      "ادب": 8440,
      "فكل": 8441,
      "##الحة": 8442,
      "##كرون": 8443,
      "يحضر": 8444,
      "الغفار": 8445,
      "امثال": 8446,
      "##اهة": 8447,
      "يغيب": 8448,
      "النهايي": 8449,
      "فاما": 8450,
      "ارسل": 8451,
      "غصب": 8452,
      "😂💔": 8453,
      "سط": 8454,
      "ابلغ": 8455,
      "معروف": 8456,
      "ويك": 8457,
      "##ro": 8458,
      "ايجا": 8459,
      "بتقول": 8460,
      "اجيب": 8461,
      "طويلة": 8462,
      "بذكرك": 8463,
      "ودع": 8464,
      "كريستيانو": 8465,
      "البحث": 8466,
      "معلش": 8467,
      "الانقلاب": 8468,
      "##تن": 8469,
      "##او": 8470,
      "عسير": 8471,
      "العاش": 8472,
      "العص": 8473,
      "العماني": 8474,
      "فاصبر": 8475,
      "##لالهم": 8476,
      "##حبون": 8477,
      "حميد": 8478,
      "##ندوق": 8479,
      "انفاس": 8480,
      "ومالي": 8481,
      "ياكل": 8482,
      "بتك": 8483,
      "عامة": 8484,
      "انشاء": 8485,
      "ضمير": 8486,
      "بانت": 8487,
      "الراحة": 8488,
      "خطر": 8489,
      "وعز": 8490,
      "تابعني": 8491,
      "نوف": 8492,
      "عذر": 8493,
      "القبض": 8494,
      "حاط": 8495,
      "فانما": 8496,
      "يبدو": 8497,
      "يقبل": 8498,
      "ترب": 8499,
      "فنا": 8500,
      "الاسود": 8501,
      "##طيه": 8502,
      "تعبد": 8503,
      "تياس": 8504,
      "##اسيس": 8505,
      "ياما": 8506,
      "الميت": 8507,
      "الابرار": 8508,
      "يديم": 8509,
      "يبعد": 8510,
      "روع": 8511,
      "رحت": 8512,
      "ميلان": 8513,
      "يطالب": 8514,
      "الہ": 8515,
      "جبل": 8516,
      "##تابعة": 8517,
      "واز": 8518,
      "فاض": 8519,
      "خطي": 8520,
      "##فقوا": 8521,
      "وامه": 8522,
      "جيد": 8523,
      "فتره": 8524,
      "##طني": 8525,
      "النشور": 8526,
      "قهوة": 8527,
      "التويت": 8528,
      "السياسي": 8529,
      "بطن": 8530,
      "تظن": 8531,
      "افلام": 8532,
      "شهور": 8533,
      "تاثير": 8534,
      "نرت": 8535,
      "يبلغ": 8536,
      "غاي": 8537,
      "التفاول": 8538,
      "ﺍﻟﻤ": 8539,
      "شرق": 8540,
      "نهار": 8541,
      "##شون": 8542,
      "عايلتي": 8543,
      "ابشر": 8544,
      "اجازة": 8545,
      "##النا": 8546,
      "##سيك": 8547,
      "كتر": 8548,
      "العري": 8549,
      "خري": 8550,
      "لاز": 8551,
      "وهداه": 8552,
      "##عدل": 8553,
      "ونصره": 8554,
      "ناي": 8555,
      "##gh": 8556,
      "##بروا": 8557,
      "##اا": 8558,
      "جايزة": 8559,
      "اعنا": 8560,
      "##سيل": 8561,
      "يفوز": 8562,
      "غرب": 8563,
      "احترم": 8564,
      "المناسب": 8565,
      "لمس": 8566,
      "ادع": 8567,
      "جماعه": 8568,
      "تشكي": 8569,
      "اولم": 8570,
      "وشقايي": 8571,
      "يعجز": 8572,
      "الصدق": 8573,
      "##برد": 8574,
      "والعافيه": 8575,
      "فصل": 8576,
      "بيوم": 8577,
      "فوقي": 8578,
      "قدره": 8579,
      "نسبة": 8580,
      "راسه": 8581,
      "##ضافة": 8582,
      "مير": 8583,
      "ㅤㅤ": 8584,
      "ونوره": 8585,
      "الفترة": 8586,
      "شهي": 8587,
      "جيل": 8588,
      "الامس": 8589,
      "يحفظك": 8590,
      "اساء": 8591,
      "وكفى": 8592,
      "الغرب": 8593,
      "snap": 8594,
      "دوام": 8595,
      "اكمل": 8596,
      "##12": 8597,
      "حياه": 8598,
      "تحسب": 8599,
      "صوتي": 8600,
      "تحول": 8601,
      "##قطه": 8602,
      "##وطن": 8603,
      "وكرها": 8604,
      "يعين": 8605,
      "دعوه": 8606,
      "##ذاء": 8607,
      "سهر": 8608,
      "برضو": 8609,
      "معالي": 8610,
      "يكشف": 8611,
      "##لتنا": 8612,
      "الجبر": 8613,
      "##لبك": 8614,
      "يحرم": 8615,
      "وقلوب": 8616,
      "##ضايا": 8617,
      "##عدم": 8618,
      "##ناش": 8619,
      "##وجع": 8620,
      "مرور": 8621,
      "متابعة": 8622,
      "ملف": 8623,
      "##ستق": 8624,
      "اياك": 8625,
      "سيم": 8626,
      "يده": 8627,
      "حسد": 8628,
      "vid": 8629,
      "لمش": 8630,
      "اكثرهم": 8631,
      "مانشستر": 8632,
      "##بيرة": 8633,
      "بالغدو": 8634,
      "هالح": 8635,
      "جانب": 8636,
      "##وتين": 8637,
      "اخيرا": 8638,
      "كلامي": 8639,
      "مهمة": 8640,
      "##ادلة": 8641,
      "##ربيه": 8642,
      "##وحيد": 8643,
      "طبي": 8644,
      "##غيب": 8645,
      "واهل": 8646,
      "والاصال": 8647,
      "افر": 8648,
      "ولكنه": 8649,
      "خاتم": 8650,
      "##شاف": 8651,
      "الصين": 8652,
      "اصد": 8653,
      "##حمه": 8654,
      "حقه": 8655,
      "##وحش": 8656,
      "##نوان": 8657,
      "مشهد": 8658,
      "ساعد": 8659,
      "باخت": 8660,
      "تحرير": 8661,
      "الجزء": 8662,
      "يقف": 8663,
      "بدعو": 8664,
      "يمثل": 8665,
      "متك": 8666,
      "كشف": 8667,
      "##طى": 8668,
      "العتي": 8669,
      "جهد": 8670,
      "رجاء": 8671,
      "الفار": 8672,
      "اثبت": 8673,
      "مشجع": 8674,
      "الاكت": 8675,
      "##فات": 8676,
      "##صاص": 8677,
      "يدك": 8678,
      "كوب": 8679,
      "توص": 8680,
      "وشلون": 8681,
      "يدفع": 8682,
      "عارفة": 8683,
      "سبح": 8684,
      "##ظمتك": 8685,
      "دمت": 8686,
      "فاحفظها": 8687,
      "الهند": 8688,
      "تصنع": 8689,
      "انهار": 8690,
      "تحتي": 8691,
      "كفاية": 8692,
      "ورض": 8693,
      "يغرد": 8694,
      "##نسى": 8695,
      "طالما": 8696,
      "بنفسه": 8697,
      "الشاب": 8698,
      "دعواتكم": 8699,
      "الفيصل": 8700,
      "الاوقات": 8701,
      "نتايج": 8702,
      "##خا": 8703,
      "عاب": 8704,
      "توصل": 8705,
      "واحفظني": 8706,
      "##بوا": 8707,
      "##قهم": 8708,
      "##هه": 8709,
      "طلاب": 8710,
      "##ارى": 8711,
      "ارك": 8712,
      "الفنان": 8713,
      "حاسد": 8714,
      "بالمع": 8715,
      "##اسية": 8716,
      "رفي": 8717,
      "اذان": 8718,
      "الارا": 8719,
      "الوصول": 8720,
      "خزا": 8721,
      "تظهر": 8722,
      "##كرات": 8723,
      "##ماهير": 8724,
      "وظلالهم": 8725,
      "بالدعاء": 8726,
      "##الثة": 8727,
      "طرد": 8728,
      "للري": 8729,
      "اذهب": 8730,
      "الصدور": 8731,
      "##قتنا": 8732,
      "ماح": 8733,
      "اولاد": 8734,
      "خاي": 8735,
      "المشاكل": 8736,
      "وترضى": 8737,
      "اسلمت": 8738,
      "ابداع": 8739,
      "سعيدا": 8740,
      "اتعلم": 8741,
      "الهيية": 8742,
      "طموح": 8743,
      "##يتهم": 8744,
      "يتمنى": 8745,
      "##گر": 8746,
      "اليد": 8747,
      "١٣": 8748,
      "45": 8749,
      "جامع": 8750,
      "قربك": 8751,
      "فعلت": 8752,
      "الطلاب": 8753,
      "والمن": 8754,
      "زادت": 8755,
      "ترامب": 8756,
      "نرج": 8757,
      "لاص": 8758,
      "وارجع": 8759,
      "الروم": 8760,
      "شدة": 8761,
      "##اديث": 8762,
      "معرو": 8763,
      "سعة": 8764,
      "تعلمت": 8765,
      "لعم": 8766,
      "الاحزان": 8767,
      "##ياي": 8768,
      "السوبر": 8769,
      "تجري": 8770,
      "##لجا": 8771,
      "الحلال": 8772,
      "تحقق": 8773,
      "##بارح": 8774,
      "##40": 8775,
      "وايد": 8776,
      "لايم": 8777,
      "البطولة": 8778,
      "فرحت": 8779,
      "بصدق": 8780,
      "حسابي": 8781,
      "يريدون": 8782,
      "قصف": 8783,
      "الشري": 8784,
      "طاب": 8785,
      "##arac": 8786,
      "المتابعين": 8787,
      "والحب": 8788,
      "الصغيرة": 8789,
      "المستحيل": 8790,
      "##سنين": 8791,
      "ملامح": 8792,
      "وذري": 8793,
      "الاخرى": 8794,
      "الحلوة": 8795,
      "النجم": 8796,
      "السع": 8797,
      "مكتب": 8798,
      "##عش": 8799,
      "حزنك": 8800,
      "##ثرت": 8801,
      "غيرها": 8802,
      "##app": 8803,
      "حش": 8804,
      "الاتفاق": 8805,
      "يناير": 8806,
      "##خسر": 8807,
      "ارتفاع": 8808,
      "راك": 8809,
      "اتعب": 8810,
      "فو": 8811,
      "الطب": 8812,
      "المنافقين": 8813,
      "اضع": 8814,
      "واتس": 8815,
      "ايقاف": 8816,
      "زوجته": 8817,
      "بشخص": 8818,
      "المصريين": 8819,
      "الاماني": 8820,
      "وليعلم": 8821,
      "##ید": 8822,
      "الرسم": 8823,
      "##عبين": 8824,
      "والعمل": 8825,
      "ضروري": 8826,
      "بسيطة": 8827,
      "تحصل": 8828,
      "سيتم": 8829,
      "يعرفون": 8830,
      "العدو": 8831,
      "قررت": 8832,
      "##فوق": 8833,
      "ابحث": 8834,
      "عفوا": 8835,
      "بذنوب": 8836,
      "يرحمنا": 8837,
      "صوركم": 8838,
      "شق": 8839,
      "##راش": 8840,
      "هالك": 8841,
      "بالمس": 8842,
      "الانتخابات": 8843,
      "##حدد": 8844,
      "البطل": 8845,
      "الصادق": 8846,
      "قرات": 8847,
      "يليق": 8848,
      "##ياع": 8849,
      "وجهة": 8850,
      "وجدت": 8851,
      "بدونك": 8852,
      "شرب": 8853,
      "76": 8854,
      "خلقا": 8855,
      "اجي": 8856,
      "همه": 8857,
      "طلال": 8858,
      "سنتين": 8859,
      "بلس": 8860,
      "بكثير": 8861,
      "ولاية": 8862,
      "العنا": 8863,
      "عنكم": 8864,
      "والفقر": 8865,
      "سند": 8866,
      "متح": 8867,
      "بالاس": 8868,
      "الكت": 8869,
      "الاجابة": 8870,
      "##ستي": 8871,
      "الفات": 8872,
      "علق": 8873,
      "شب": 8874,
      "##وں": 8875,
      "نواف": 8876,
      "##all": 8877,
      "##يتش": 8878,
      "النهارده": 8879,
      "الاسرايي": 8880,
      "##لفة": 8881,
      "اجع": 8882,
      "تسلط": 8883,
      "تومن": 8884,
      "بريطان": 8885,
      "##روا": 8886,
      "صحي": 8887,
      "الطبي": 8888,
      "وكذلك": 8889,
      "لمر": 8890,
      "هدوء": 8891,
      "بعظمتك": 8892,
      "يرسل": 8893,
      "37": 8894,
      "تلقى": 8895,
      "video": 8896,
      "شام": 8897,
      "تنك": 8898,
      "##weet": 8899,
      "تحكي": 8900,
      "##if": 8901,
      "المكر": 8902,
      "ابكي": 8903,
      "للتواصل": 8904,
      "الشخصية": 8905,
      "##ياق": 8906,
      "مخلصين": 8907,
      "وعليك": 8908,
      "المقاومة": 8909,
      "##رفه": 8910,
      "ساهم": 8911,
      "المظ": 8912,
      "##يبات": 8913,
      "##فيض": 8914,
      "قصيدة": 8915,
      "بهد": 8916,
      "لقب": 8917,
      "وانته": 8918,
      "##قانا": 8919,
      "اضغط": 8920,
      "تحرمني": 8921,
      "ويجعل": 8922,
      "الحوار": 8923,
      "اكر": 8924,
      "##گم": 8925,
      "تدع": 8926,
      "##نار": 8927,
      "اون": 8928,
      "الاسباب": 8929,
      "##ننا": 8930,
      "تشت": 8931,
      "معلم": 8932,
      "خسرت": 8933,
      "مكانه": 8934,
      "النفط": 8935,
      "يدري": 8936,
      "mbc": 8937,
      "##سيقى": 8938,
      "بحس": 8939,
      "تحبون": 8940,
      "والملك": 8941,
      "اعما": 8942,
      "بالامس": 8943,
      "##ﻨﻲ": 8944,
      "الفتن": 8945,
      "ايامنا": 8946,
      "الاور": 8947,
      "بست": 8948,
      "الصابرين": 8949,
      "بمح": 8950,
      "تقديم": 8951,
      "##ايدة": 8952,
      "##ter": 8953,
      "بحياتي": 8954,
      "تفاصي": 8955,
      "راى": 8956,
      "الاحقاف": 8957,
      "سعيدة": 8958,
      "##نوا": 8959,
      "مطمينا": 8960,
      "تاكل": 8961,
      "##ذيب": 8962,
      "##ادثة": 8963,
      "معلومات": 8964,
      "صيا": 8965,
      "سجود": 8966,
      "يسجل": 8967,
      "مفتوح": 8968,
      "يلق": 8969,
      "يفقه": 8970,
      "الفشل": 8971,
      "قامت": 8972,
      "اهالي": 8973,
      "يراك": 8974,
      "وكيل": 8975,
      "وربنا": 8976,
      "السحب": 8977,
      "##اريات": 8978,
      "عبدالم": 8979,
      "تدرك": 8980,
      "##ظبط": 8981,
      "##بيبي": 8982,
      "وشعب": 8983,
      "العسر": 8984,
      "قمت": 8985,
      "بعدما": 8986,
      "##انع": 8987,
      "##یر": 8988,
      "مضت": 8989,
      "وهما": 8990,
      "تكذب": 8991,
      "##لطيف": 8992,
      "ذكره": 8993,
      "سے": 8994,
      "كسب": 8995,
      "##خذنا": 8996,
      "العيب": 8997,
      "الابداع": 8998,
      "##ارنا": 8999,
      "##لاش": 9000,
      "كور": 9001,
      "يذهب": 9002,
      "##سير": 9003,
      "سان": 9004,
      "##شاء": 9005,
      "لاننا": 9006,
      "الرجاء": 9007,
      "طابت": 9008,
      "العلماء": 9009,
      "وافضل": 9010,
      "بركة": 9011,
      "الحكي": 9012,
      "راجع": 9013,
      "مصد": 9014,
      "النجوم": 9015,
      "طوال": 9016,
      "##وفك": 9017,
      "تحكم": 9018,
      "##بو": 9019,
      "بعينك": 9020,
      "تافه": 9021,
      "اللحظات": 9022,
      "صعبة": 9023,
      "يكفر": 9024,
      "##قدك": 9025,
      "التوبة": 9026,
      "سح": 9027,
      "##موت": 9028,
      "لمح": 9029,
      "مرضى": 9030,
      "##دات": 9031,
      "اغاني": 9032,
      "السوق": 9033,
      "##كرين": 9034,
      "سبت": 9035,
      "حرية": 9036,
      "فتحت": 9037,
      "والاح": 9038,
      "الرياضية": 9039,
      "طاقة": 9040,
      "اغتال": 9041,
      "##pt": 9042,
      "##هورية": 9043,
      "##ظاهرات": 9044,
      "جات": 9045,
      "يشت": 9046,
      "سجن": 9047,
      "حزني": 9048,
      "##هق": 9049,
      "بعمل": 9050,
      "سكن": 9051,
      "فشل": 9052,
      "منى": 9053,
      "النايب": 9054,
      "##زاء": 9055,
      "الاعلان": 9056,
      "ادي": 9057,
      "حرا": 9058,
      "يفر": 9059,
      "##ﺮﺍ": 9060,
      "لہ": 9061,
      "الحشد": 9062,
      "مصاب": 9063,
      "فارق": 9064,
      "ابوك": 9065,
      "بالذ": 9066,
      "حارس": 9067,
      "وصد": 9068,
      "فرض": 9069,
      "ضل": 9070,
      "starac": 9071,
      "حماس": 9072,
      "منط": 9073,
      "امشي": 9074,
      "##اثية": 9075,
      "##خلى": 9076,
      "السري": 9077,
      "تنفع": 9078,
      "واياكم": 9079,
      "حصلت": 9080,
      "##سمك": 9081,
      "وده": 9082,
      "يرجى": 9083,
      "سيت": 9084,
      "طبع": 9085,
      "احكي": 9086,
      "لكرة": 9087,
      "ردا": 9088,
      "##رمضان": 9089,
      "##اتف": 9090,
      "خبير": 9091,
      "بعنوان": 9092,
      "##نمية": 9093,
      "جاك": 9094,
      "عينه": 9095,
      "نيك": 9096,
      "الساح": 9097,
      "for": 9098,
      "اعج": 9099,
      "الخلا": 9100,
      "ساح": 9101,
      "ترق": 9102,
      "صب": 9103,
      "امبارح": 9104,
      "تدا": 9105,
      "امورنا": 9106,
      "مشاك": 9107,
      "ودني": 9108,
      "الكهرباء": 9109,
      "معص": 9110,
      "جنون": 9111,
      "وانك": 9112,
      "وقع": 9113,
      "تندم": 9114,
      "همومنا": 9115,
      "ووال": 9116,
      "يسقط": 9117,
      "المواطنين": 9118,
      "مقب": 9119,
      "جوال": 9120,
      "الثان": 9121,
      "سهي": 9122,
      "التى": 9123,
      "اوفر": 9124,
      "##امع": 9125,
      "اولي": 9126,
      "تصد": 9127,
      "##ماية": 9128,
      "##ضوا": 9129,
      "الكتب": 9130,
      "##ستور": 9131,
      "##بحين": 9132,
      "مفر": 9133,
      "ياجما": 9134,
      "##افحة": 9135,
      "يعشق": 9136,
      "تحفظ": 9137,
      "الانف": 9138,
      "لينا": 9139,
      "بشرت": 9140,
      "تعقلون": 9141,
      "tv": 9142,
      "يدرك": 9143,
      "##غان": 9144,
      "ارايتم": 9145,
      "##راجع": 9146,
      "املا": 9147,
      "سماء": 9148,
      "الالت": 9149,
      "##بدع": 9150,
      "٢٠٠": 9151,
      "لايف": 9152,
      "طاير": 9153,
      "بقرب": 9154,
      "البوا": 9155,
      "سيية": 9156,
      "امسينا": 9157,
      "##لوات": 9158,
      "الصعب": 9159,
      "##ﻮﻥ": 9160,
      "لسانه": 9161,
      "ووا": 9162,
      "ملايين": 9163,
      "كبيره": 9164,
      "انعمت": 9165,
      "صوته": 9166,
      "##16": 9167,
      "اسوء": 9168,
      "##قس": 9169,
      "حكاية": 9170,
      "##لرف": 9171,
      "وبركاته": 9172,
      "##96": 9173,
      "يغني": 9174,
      "يتابع": 9175,
      "احاول": 9176,
      "احوال": 9177,
      "منش": 9178,
      "وليعلمن": 9179,
      "فارحم": 9180,
      "المياه": 9181,
      "عور": 9182,
      "السد": 9183,
      "سماع": 9184,
      "شوقي": 9185,
      "نغ": 9186,
      "الكرام": 9187,
      "فالك": 9188,
      "##لامه": 9189,
      "ذبح": 9190,
      "تلعب": 9191,
      "##فيف": 9192,
      "وعدد": 9193,
      "باط": 9194,
      "االع": 9195,
      "بعب": 9196,
      "تفكير": 9197,
      "بتش": 9198,
      "لقمان": 9199,
      "جملة": 9200,
      "الحاجه": 9201,
      "الرف": 9202,
      "الخش": 9203,
      "عطا": 9204,
      "ماسك": 9205,
      "العودة": 9206,
      "يعتقد": 9207,
      "بداخلي": 9208,
      "##فانا": 9209,
      "ab": 9210,
      "##ess": 9211,
      "١٨": 9212,
      "بطولات": 9213,
      "ويحفظ": 9214,
      "##ويد": 9215,
      "كفرتم": 9216,
      "مارك": 9217,
      "بغداد": 9218,
      "##💔💔": 9219,
      "وينك": 9220,
      "صحاب": 9221,
      "لار": 9222,
      "بدلا": 9223,
      "راجل": 9224,
      "##رمين": 9225,
      "المرك": 9226,
      "ثمن": 9227,
      "خاشعا": 9228,
      "همك": 9229,
      "رايحة": 9230,
      "للهلال": 9231,
      "ومي": 9232,
      "الشوارع": 9233,
      "هود": 9234,
      "وقفت": 9235,
      "300": 9236,
      "##شعر": 9237,
      "المري": 9238,
      "الحضور": 9239,
      "راعي": 9240,
      "##gy": 9241,
      "سلامة": 9242,
      "##ارف": 9243,
      "والسداد": 9244,
      "فايدة": 9245,
      "غايب": 9246,
      "اتى": 9247,
      "الجنوبي": 9248,
      "##رامه": 9249,
      "بره": 9250,
      "##ريل": 9251,
      "الدراسة": 9252,
      "نزلت": 9253,
      "يحسن": 9254,
      "يثبت": 9255,
      "العربيه": 9256,
      "خوات": 9257,
      "الود": 9258,
      "مبدا": 9259,
      "واكت": 9260,
      "عقدة": 9261,
      "يشهد": 9262,
      "بالصور": 9263,
      "ياحي": 9264,
      "فيصلي": 9265,
      "##عتها": 9266,
      "حلق": 9267,
      "ووعدك": 9268,
      "کو": 9269,
      "اتفق": 9270,
      "مثلي": 9271,
      "باح": 9272,
      "شرط": 9273,
      "##اليق": 9274,
      "##للمت": 9275,
      "الفطر": 9276,
      "##فيت": 9277,
      "الاخضر": 9278,
      "حسيت": 9279,
      "سعادتك": 9280,
      "الاحمر": 9281,
      "##الون": 9282,
      "صعبه": 9283,
      "هاشتاق": 9284,
      "##ديده": 9285,
      "هاش": 9286,
      "للحياة": 9287,
      "مثله": 9288,
      "ادور": 9289,
      "51": 9290,
      "كانو": 9291,
      "القن": 9292,
      "الفكر": 9293,
      "ارسنال": 9294,
      "##اربة": 9295,
      "مطعم": 9296,
      "برق": 9297,
      "ليتني": 9298,
      "وحيدا": 9299,
      "##انق": 9300,
      "رضى": 9301,
      "يعقوب": 9302,
      "بيته": 9303,
      "فقير": 9304,
      "اجرهم": 9305,
      "التم": 9306,
      "لعلكم": 9307,
      "##حابي": 9308,
      "##لحين": 9309,
      "اتذكر": 9310,
      "##تس": 9311,
      "شن": 9312,
      "تخلص": 9313,
      "##ويك": 9314,
      "عايزين": 9315,
      "استح": 9316,
      "عروض": 9317,
      "يوا": 9318,
      "السجن": 9319,
      "##ﺘﻲ": 9320,
      "المقص": 9321,
      "##عليم": 9322,
      "المفت": 9323,
      "يسكن": 9324,
      "تقل": 9325,
      "##ليني": 9326,
      "##لرضى": 9327,
      "ثابت": 9328,
      "##وعي": 9329,
      "وقلبي": 9330,
      "ادخ": 9331,
      "تتح": 9332,
      "نطالب": 9333,
      "##ﻧﺎ": 9334,
      "والحق": 9335,
      "وافتح": 9336,
      "##عور": 9337,
      "##شش": 9338,
      "يخيب": 9339,
      "##حايا": 9340,
      "الرضى": 9341,
      "وصول": 9342,
      "ليها": 9343,
      "##op": 9344,
      "اكتوبر": 9345,
      "الجاثية": 9346,
      "شبكة": 9347,
      "محافظ": 9348,
      "ننسى": 9349,
      "##وطة": 9350,
      "##انس": 9351,
      "سياتي": 9352,
      "ياش": 9353,
      "کر": 9354,
      "##جمع": 9355,
      "الاندية": 9356,
      "هجوم": 9357,
      "کا": 9358,
      "##كية": 9359,
      "شهيدا": 9360,
      "##ثون": 9361,
      "##مانية": 9362,
      "##قابل": 9363,
      "بعلمك": 9364,
      "لتس": 9365,
      "نرى": 9366,
      "مهت": 9367,
      "الوسط": 9368,
      "##الدنيا": 9369,
      "اصوات": 9370,
      "نہ": 9371,
      "مسيرة": 9372,
      "الصراط": 9373,
      "اعتذر": 9374,
      "واجد": 9375,
      "والاه": 9376,
      "سالت": 9377,
      "والاك": 9378,
      "تفضل": 9379,
      "وفيه": 9380,
      "تلت": 9381,
      "بلوك": 9382,
      "البداية": 9383,
      "اغفرلنا": 9384,
      "بالليل": 9385,
      "الشعبي": 9386,
      "بالعذاب": 9387,
      "السعوديين": 9388,
      "والز": 9389,
      "يضع": 9390,
      "غردلي": 9391,
      "الشك": 9392,
      "التسجيل": 9393,
      "##الين": 9394,
      "بتكون": 9395,
      "باج": 9396,
      "واخت": 9397,
      "##عدام": 9398,
      "قري": 9399,
      "حاسس": 9400,
      "كش": 9401,
      "am": 9402,
      "انبنا": 9403,
      "47": 9404,
      "تهتم": 9405,
      "ااستغفر": 9406,
      "التلق": 9407,
      "مسك": 9408,
      "##خيص": 9409,
      "##زيع": 9410,
      "الاقدار": 9411,
      "يشارك": 9412,
      "عموما": 9413,
      "31": 9414,
      "ينقص": 9415,
      "##ردد": 9416,
      "صراط": 9417,
      "الوزير": 9418,
      "بالحياة": 9419,
      "المرس": 9420,
      "دينار": 9421,
      "الاقصى": 9422,
      "ﻋﻠﻰ": 9423,
      "##ثار": 9424,
      "##ليها": 9425,
      "اسررت": 9426,
      "يرحل": 9427,
      "حاضر": 9428,
      "الهاشتاق": 9429,
      "##لخص": 9430,
      "رزقا": 9431,
      "##ﺣﺪ": 9432,
      "البعيد": 9433,
      "تكر": 9434,
      "41": 9435,
      "##طط": 9436,
      "لاخر": 9437,
      "القايد": 9438,
      "مشاهدة": 9439,
      "##وضع": 9440,
      "شار": 9441,
      "شيي": 9442,
      "هين": 9443,
      "سع": 9444,
      "##88": 9445,
      "بعرف": 9446,
      "##لانات": 9447,
      "##اهره": 9448,
      "تضع": 9449,
      "تبعد": 9450,
      "النفسية": 9451,
      "تمني": 9452,
      "ماير": 9453,
      "الحليم": 9454,
      "المدارس": 9455,
      "مقيم": 9456,
      "قصيرة": 9457,
      "2018": 9458,
      "sound": 9459,
      "عينا": 9460,
      "غز": 9461,
      "وظايف": 9462,
      "معرفة": 9463,
      "لكني": 9464,
      "يذنب": 9465,
      "فاطر": 9466,
      "النفاق": 9467,
      "بصراحة": 9468,
      "والمومنين": 9469,
      "اليا": 9470,
      "##بعه": 9471,
      "##وبية": 9472,
      "رقابنا": 9473,
      "الصحي": 9474,
      "الفلو": 9475,
      "فالله": 9476,
      "سكان": 9477,
      "بمثل": 9478,
      "مستقبل": 9479,
      "وضيق": 9480,
      "احياء": 9481,
      "##نيف": 9482,
      "الشف": 9483,
      "خدم": 9484,
      "##اوية": 9485,
      "خصوصا": 9486,
      "اسماع": 9487,
      "##لفت": 9488,
      "السمو": 9489,
      "بردو": 9490,
      "##arabia": 9491,
      "شوارع": 9492,
      "الفنا": 9493,
      "##زني": 9494,
      "استف": 9495,
      "اطول": 9496,
      "كفار": 9497,
      "##بدا": 9498,
      "االعظيم": 9499,
      "واجمل": 9500,
      "اصول": 9501,
      "##روه": 9502,
      "معاها": 9503,
      "يوصل": 9504,
      "فيحسن": 9505,
      "وصوركم": 9506,
      "علمني": 9507,
      "الصلاه": 9508,
      "لوح": 9509,
      "كاف": 9510,
      "يسبح": 9511,
      "##لكة": 9512,
      "الاماكن": 9513,
      "اكن": 9514,
      "اربعة": 9515,
      "علوم": 9516,
      "غفرانك": 9517,
      "##ولوج": 9518,
      "التخ": 9519,
      "##ودا": 9520,
      "كبيرا": 9521,
      "##وفه": 9522,
      "اسقاط": 9523,
      "القبور": 9524,
      "تثق": 9525,
      "بعين": 9526,
      "خليل": 9527,
      "عرفة": 9528,
      "##صباح": 9529,
      "مقر": 9530,
      "الكام": 9531,
      "القيام": 9532,
      "ساي": 9533,
      "##ساهم": 9534,
      "واكرم": 9535,
      "دبر": 9536,
      "##ﺎﺭ": 9537,
      "المريض": 9538,
      "ويسعد": 9539,
      "هتب": 9540,
      "##وانات": 9541,
      "بالمن": 9542,
      "نفسيا": 9543,
      "##كريا": 9544,
      "مكروه": 9545,
      "62": 9546,
      "##one": 9547,
      "القطري": 9548,
      "باص": 9549,
      "##ابط": 9550,
      "هش": 9551,
      "اسهل": 9552,
      "تصميم": 9553,
      "##طاليا": 9554,
      "واجعلني": 9555,
      "##مرات": 9556,
      "اسلو": 9557,
      "الامه": 9558,
      "لنفسي": 9559,
      "##وند": 9560,
      "الطهور": 9561,
      "الممات": 9562,
      "##53": 9563,
      "الفلوس": 9564,
      "وليست": 9565,
      "تنه": 9566,
      "تسبيح": 9567,
      "واسع": 9568,
      "عسكري": 9569,
      "قيادة": 9570,
      "لقوم": 9571,
      "توجد": 9572,
      "السبع": 9573,
      "👇👇": 9574,
      "##um": 9575,
      "وحيد": 9576,
      "واذكر": 9577,
      "عالية": 9578,
      "الكا": 9579,
      "ابتعد": 9580,
      "تبادل": 9581,
      "تواصل": 9582,
      "عصر": 9583,
      "فرجا": 9584,
      "باز": 9585,
      "الجوال": 9586,
      "مباركة": 9587,
      "يخلص": 9588,
      "##ستقرام": 9589,
      "البكاء": 9590,
      "ليلا": 9591,
      "##لقا": 9592,
      "محتاجين": 9593,
      "قدرك": 9594,
      "اجم": 9595,
      "دقه": 9596,
      "مقام": 9597,
      "##ازي": 9598,
      "مستقيم": 9599,
      "اخذت": 9600,
      "متاب": 9601,
      "##قده": 9602,
      "##ربها": 9603,
      "💛💙": 9604,
      "الطبيعي": 9605,
      "الراجل": 9606,
      "##وانه": 9607,
      "##ظيما": 9608,
      "ولاقوة": 9609,
      "فاجعل": 9610,
      "نايب": 9611,
      "بقلبك": 9612,
      "صدقت": 9613,
      "مصيبة": 9614,
      "##عتي": 9615,
      "كرام": 9616,
      "الطيران": 9617,
      "جلد": 9618,
      "بثلاث": 9619,
      "مهموم": 9620,
      "وخذ": 9621,
      "احسنت": 9622,
      "اليكم": 9623,
      "والض": 9624,
      "عقول": 9625,
      "خميس": 9626,
      "صدا": 9627,
      "✋🏻": 9628,
      "تذهب": 9629,
      "2013": 9630,
      "اماما": 9631,
      "هنييا": 9632,
      "ستجد": 9633,
      "اكفنا": 9634,
      "##كاة": 9635,
      "اوس": 9636,
      "دمشق": 9637,
      "##وانين": 9638,
      "عقبال": 9639,
      "ﺍﻟﺤ": 9640,
      "احمر": 9641,
      "يمد": 9642,
      "##ارن": 9643,
      "هيف": 9644,
      "يقين": 9645,
      "يونا": 9646,
      "داود": 9647,
      "##باقي": 9648,
      "زر": 9649,
      "احص": 9650,
      "المعروف": 9651,
      "##للو": 9652,
      "لايات": 9653,
      "قالو": 9654,
      "الموظ": 9655,
      "رجعت": 9656,
      "اللہم": 9657,
      "اليابان": 9658,
      "##ha": 9659,
      "##بى": 9660,
      "##وعة": 9661,
      "43": 9662,
      "الروا": 9663,
      "الطلب": 9664,
      "فاوليك": 9665,
      "##زاق": 9666,
      "زوجها": 9667,
      "يسي": 9668,
      "بالضبط": 9669,
      "##قاذ": 9670,
      "بالناس": 9671,
      "##طفي": 9672,
      "##حتها": 9673,
      "##cloud": 9674,
      "نعبد": 9675,
      "انزلنا": 9676,
      "##بشر": 9677,
      "العتيبي": 9678,
      "يدا": 9679,
      "ثناء": 9680,
      "فرحه": 9681,
      "اخواني": 9682,
      "الشارقة": 9683,
      "لدعم": 9684,
      "يلعن": 9685,
      "خالدين": 9686,
      "staracarabia": 9687,
      "##ولوا": 9688,
      "##رقني": 9689,
      "##يرو": 9690,
      "الساد": 9691,
      "لوجه": 9692,
      "القيادة": 9693,
      "فية": 9694,
      "##👌🏻": 9695,
      "ميتا": 9696,
      "احداث": 9697,
      "##ياز": 9698,
      "بالان": 9699,
      "تات": 9700,
      "##فاظ": 9701,
      "احتسب": 9702,
      "المدني": 9703,
      "##باق": 9704,
      "اعترف": 9705,
      "الحقيقه": 9706,
      "القريب": 9707,
      "انتا": 9708,
      "باللي": 9709,
      "##جين": 9710,
      "والمش": 9711,
      "رفعت": 9712,
      "جون": 9713,
      "جريدة": 9714,
      "الصحفي": 9715,
      "رحمته": 9716,
      "الارهابي": 9717,
      "الفكرة": 9718,
      "الاعداء": 9719,
      "الغريب": 9720,
      "##فيس": 9721,
      "##حكيم": 9722,
      "كنوز": 9723,
      "غريبة": 9724,
      "##حترم": 9725,
      "بحد": 9726,
      "حجاب": 9727,
      "نعت": 9728,
      "والاب": 9729,
      "##جت": 9730,
      "اعتق": 9731,
      "بالعالم": 9732,
      "العشاء": 9733,
      "54": 9734,
      "السورية": 9735,
      "ويزيد": 9736,
      "اجعلها": 9737,
      "الثناء": 9738,
      "الكرسي": 9739,
      "مود": 9740,
      "##لحق": 9741,
      "##lac": 9742,
      "ﺃﻥ": 9743,
      "اغفرلي": 9744,
      "بقض": 9745,
      "بلاء": 9746,
      "سلف": 9747,
      "اقعد": 9748,
      "خلقناهم": 9749,
      "##يرن": 9750,
      "خب": 9751,
      "عذابا": 9752,
      "قي": 9753,
      "##طاني": 9754,
      "وتخ": 9755,
      "خرا": 9756,
      "اعمالنا": 9757,
      "الخيال": 9758,
      "بالفرح": 9759,
      "##زف": 9760,
      "##رمى": 9761,
      "وكت": 9762,
      "ذنوبي": 9763,
      "an": 9764,
      "توم": 9765,
      "##ation": 9766,
      "##غلني": 9767,
      "الدخان": 9768,
      "ومث": 9769,
      "خطاب": 9770,
      "مازال": 9771,
      "اسرار": 9772,
      "كاش": 9773,
      "##امعة": 9774,
      "مختلفة": 9775,
      "##جان": 9776,
      "##الفة": 9777,
      "ارحمنا": 9778,
      "الرابع": 9779,
      "تقولي": 9780,
      "الشمري": 9781,
      "ياخد": 9782,
      "##عمون": 9783,
      "محس": 9784,
      "اطلق": 9785,
      "بلادي": 9786,
      "##بتهم": 9787,
      "تسجيل": 9788,
      "##جيين": 9789,
      "حمل": 9790,
      "تحدي": 9791,
      "الصحاب": 9792,
      "##رجم": 9793,
      "##طرق": 9794,
      "الحسابات": 9795,
      "فلان": 9796,
      "شج": 9797,
      "سد": 9798,
      "شاه": 9799,
      "##اليا": 9800,
      "##وسم": 9801,
      "soundcloud": 9802,
      "نكت": 9803,
      "مصبحين": 9804,
      "حالنا": 9805,
      "مكس": 9806,
      "السكوت": 9807,
      "##زاك": 9808,
      "فجاه": 9809,
      "##رتها": 9810,
      "نر": 9811,
      "اتجاه": 9812,
      "يدعون": 9813,
      "##حطاني": 9814,
      "طر": 9815,
      "يظلمون": 9816,
      "وتر": 9817,
      "##نن": 9818,
      "غبي": 9819,
      "الضغط": 9820,
      "جريمة": 9821,
      "##اجات": 9822,
      "بگ": 9823,
      "##ماغ": 9824,
      "١٦": 9825,
      "##ﺮﻳ": 9826,
      "##قاعد": 9827,
      "جور": 9828,
      "قلو": 9829,
      "##رجل": 9830,
      "الجلال": 9831,
      "تمنع": 9832,
      "تحيا": 9833,
      "لتن": 9834,
      "صلات": 9835,
      "المشاركة": 9836,
      "اعداء": 9837,
      "##لسلات": 9838,
      "ثالث": 9839,
      "صاحبه": 9840,
      "##ختار": 9841,
      "##وسري": 9842,
      "الحوثيين": 9843,
      "تشمت": 9844,
      "المالك": 9845,
      "lik": 9846,
      "##صون": 9847,
      "الجميله": 9848,
      "يعاني": 9849,
      "صدره": 9850,
      "تطوير": 9851,
      "كيد": 9852,
      "مخلوق": 9853,
      "اناس": 9854,
      "تنفيذ": 9855,
      "تكبر": 9856,
      "##جيج": 9857,
      "اظ": 9858,
      "واشرح": 9859,
      "الدولية": 9860,
      "##بعة": 9861,
      "فوض": 9862,
      "الصنا": 9863,
      "القراءة": 9864,
      "قاعده": 9865,
      "##درات": 9866,
      "محتاجه": 9867,
      "الرتويت": 9868,
      "ذنبه": 9869,
      "يحبه": 9870,
      "٢٥": 9871,
      "تث": 9872,
      "المطلوب": 9873,
      "##ھی": 9874,
      "ايوه": 9875,
      "تتع": 9876,
      "هلال": 9877,
      "تدعو": 9878,
      "##نيني": 9879,
      "نستطيع": 9880,
      "المتقين": 9881,
      "٢٤": 9882,
      "قلوبكم": 9883,
      "##oc": 9884,
      "اراك": 9885,
      "اليهود": 9886,
      "##ربين": 9887,
      "الظالم": 9888,
      "##oll": 9889,
      "الضمير": 9890,
      "قلنا": 9891,
      "##99": 9892,
      "عاشق": 9893,
      "ميد": 9894,
      "##22": 9895,
      "اللبناني": 9896,
      "##احه": 9897,
      "حمي": 9898,
      "يمس": 9899,
      "##لضع": 9900,
      "##نتش": 9901,
      "نعمل": 9902,
      "مافيش": 9903,
      "me": 9904,
      "بانهم": 9905,
      "الخمس": 9906,
      "لقى": 9907,
      "##ليشيات": 9908,
      "مرجع": 9909,
      "الضع": 9910,
      "العباد": 9911,
      "مطلب": 9912,
      "##صرخ": 9913,
      "وعق": 9914,
      "غرفة": 9915,
      "##للعب": 9916,
      "##فعال": 9917,
      "مستمر": 9918,
      "ليتك": 9919,
      "##😭😭": 9920,
      "المسو": 9921,
      "القصيم": 9922,
      "كانهم": 9923,
      "فانظر": 9924,
      "جبت": 9925,
      "شرطة": 9926,
      "اشي": 9927,
      "ارواحنا": 9928,
      "عملي": 9929,
      "##وزع": 9930,
      "واشت": 9931,
      "مبح": 9932,
      "##ايش": 9933,
      "شاك": 9934,
      "الشا": 9935,
      "الشيعة": 9936,
      "احيان": 9937,
      "جبران": 9938,
      "اللعب": 9939,
      "عيسى": 9940,
      "سابق": 9941,
      "تجربة": 9942,
      "اموري": 9943,
      "اعطيتني": 9944,
      "ادعي": 9945,
      "تعام": 9946,
      "تغيرت": 9947,
      "الثالثة": 9948,
      "##ort": 9949,
      "##الفه": 9950,
      "يوجع": 9951,
      "بغيت": 9952,
      "##عرفش": 9953,
      "الماتش": 9954,
      "عون": 9955,
      "الحكمة": 9956,
      "كلن": 9957,
      "العاصمة": 9958,
      "العقد": 9959,
      "كات": 9960,
      "##بلو": 9961,
      "##يسي": 9962,
      "جت": 9963,
      "بالاح": 9964,
      "وتبقى": 9965,
      "بالاخرة": 9966,
      "حضن": 9967,
      "رزقك": 9968,
      "##سامه": 9969,
[...]
